const unsigned char model[] = {
  0x1c, 0x00, 0x00, 0x00, 0x54, 0x46, 0x4c, 0x33, 0x14, 0x00, 0x20, 0x00,
  0x1c, 0x00, 0x18, 0x00, 0x14, 0x00, 0x10, 0x00, 0x0c, 0x00, 0x00, 0x00,
  0x08, 0x00, 0x04, 0x00, 0x14, 0x00, 0x00, 0x00, 0x1c, 0x00, 0x00, 0x00,
  0x94, 0x00, 0x00, 0x00, 0xec, 0x00, 0x00, 0x00, 0x94, 0x2c, 0x00, 0x00,
  0xa4, 0x2c, 0x00, 0x00, 0x7c, 0x32, 0x00, 0x00, 0x03, 0x00, 0x00, 0x00,
  0x01, 0x00, 0x00, 0x00, 0x10, 0x00, 0x00, 0x00, 0x00, 0x00, 0x0a, 0x00,
  0x10, 0x00, 0x0c, 0x00, 0x08, 0x00, 0x04, 0x00, 0x0a, 0x00, 0x00, 0x00,
  0x0c, 0x00, 0x00, 0x00, 0x1c, 0x00, 0x00, 0x00, 0x38, 0x00, 0x00, 0x00,
  0x0f, 0x00, 0x00, 0x00, 0x73, 0x65, 0x72, 0x76, 0x69, 0x6e, 0x67, 0x5f,
  0x64, 0x65, 0x66, 0x61, 0x75, 0x6c, 0x74, 0x00, 0x01, 0x00, 0x00, 0x00,
  0x04, 0x00, 0x00, 0x00, 0x94, 0xff, 0xff, 0xff, 0x0a, 0x00, 0x00, 0x00,
  0x04, 0x00, 0x00, 0x00, 0x07, 0x00, 0x00, 0x00, 0x64, 0x65, 0x6e, 0x73,
  0x65, 0x5f, 0x38, 0x00, 0x01, 0x00, 0x00, 0x00, 0x04, 0x00, 0x00, 0x00,
  0x4e, 0xd3, 0xff, 0xff, 0x04, 0x00, 0x00, 0x00, 0x0d, 0x00, 0x00, 0x00,
  0x64, 0x65, 0x6e, 0x73, 0x65, 0x5f, 0x36, 0x5f, 0x69, 0x6e, 0x70, 0x75,
  0x74, 0x00, 0x00, 0x00, 0x02, 0x00, 0x00, 0x00, 0x34, 0x00, 0x00, 0x00,
  0x04, 0x00, 0x00, 0x00, 0xdc, 0xff, 0xff, 0xff, 0x0d, 0x00, 0x00, 0x00,
  0x04, 0x00, 0x00, 0x00, 0x13, 0x00, 0x00, 0x00, 0x43, 0x4f, 0x4e, 0x56,
  0x45, 0x52, 0x53, 0x49, 0x4f, 0x4e, 0x5f, 0x4d, 0x45, 0x54, 0x41, 0x44,
  0x41, 0x54, 0x41, 0x00, 0x08, 0x00, 0x0c, 0x00, 0x08, 0x00, 0x04, 0x00,
  0x08, 0x00, 0x00, 0x00, 0x0c, 0x00, 0x00, 0x00, 0x04, 0x00, 0x00, 0x00,
  0x13, 0x00, 0x00, 0x00, 0x6d, 0x69, 0x6e, 0x5f, 0x72, 0x75, 0x6e, 0x74,
  0x69, 0x6d, 0x65, 0x5f, 0x76, 0x65, 0x72, 0x73, 0x69, 0x6f, 0x6e, 0x00,
  0x0e, 0x00, 0x00, 0x00, 0xa4, 0x2b, 0x00, 0x00, 0x9c, 0x2b, 0x00, 0x00,
  0x78, 0x2b, 0x00, 0x00, 0x68, 0x2a, 0x00, 0x00, 0xd8, 0x29, 0x00, 0x00,
  0xc8, 0x25, 0x00, 0x00, 0xb8, 0x05, 0x00, 0x00, 0xa8, 0x00, 0x00, 0x00,
  0xa0, 0x00, 0x00, 0x00, 0x98, 0x00, 0x00, 0x00, 0x90, 0x00, 0x00, 0x00,
  0x88, 0x00, 0x00, 0x00, 0x68, 0x00, 0x00, 0x00, 0x04, 0x00, 0x00, 0x00,
  0x02, 0xd4, 0xff, 0xff, 0x04, 0x00, 0x00, 0x00, 0x54, 0x00, 0x00, 0x00,
  0x0c, 0x00, 0x00, 0x00, 0x08, 0x00, 0x0e, 0x00, 0x08, 0x00, 0x04, 0x00,
  0x08, 0x00, 0x00, 0x00, 0x10, 0x00, 0x00, 0x00, 0x24, 0x00, 0x00, 0x00,
  0x00, 0x00, 0x06, 0x00, 0x08, 0x00, 0x04, 0x00, 0x06, 0x00, 0x00, 0x00,
  0x04, 0x00, 0x00, 0x00, 0x00, 0x00, 0x00, 0x00, 0x00, 0x00, 0x0a, 0x00,
  0x10, 0x00, 0x0c, 0x00, 0x08, 0x00, 0x04, 0x00, 0x0a, 0x00, 0x00, 0x00,
  0x02, 0x00, 0x00, 0x00, 0x02, 0x00, 0x00, 0x00, 0x04, 0x00, 0x00, 0x00,
  0x06, 0x00, 0x00, 0x00, 0x32, 0x2e, 0x31, 0x35, 0x2e, 0x30, 0x00, 0x00,
  0x62, 0xd4, 0xff, 0xff, 0x04, 0x00, 0x00, 0x00, 0x10, 0x00, 0x00, 0x00,
  0x31, 0x2e, 0x35, 0x2e, 0x30, 0x00, 0x00, 0x00, 0x00, 0x00, 0x00, 0x00,
  0x00, 0x00, 0x00, 0x00, 0x54, 0xcf, 0xff, 0xff, 0x58, 0xcf, 0xff, 0xff,
  0x5c, 0xcf, 0xff, 0xff, 0x60, 0xcf, 0xff, 0xff, 0x8e, 0xd4, 0xff, 0xff,
  0x04, 0x00, 0x00, 0x00, 0x00, 0x05, 0x00, 0x00, 0x96, 0x83, 0xfe, 0xbe,
  0x3f, 0xe5, 0x19, 0xbe, 0x57, 0x6b, 0xef, 0x3d, 0x38, 0x00, 0xa0, 0xbd,
  0x10, 0x79, 0x28, 0xbf, 0xf0, 0xf9, 0xf4, 0x3d, 0x65, 0x2a, 0xda, 0x3d,
  0x92, 0xec, 0xe4, 0xbe, 0x18, 0x6b, 0x93, 0x3e, 0xa8, 0x67, 0x49, 0xbe,
  0xbb, 0xa2, 0xba, 0xbc, 0x4c, 0x3e, 0xce, 0x3d, 0x6c, 0x8a, 0xaa, 0xbc,
  0x54, 0x21, 0x89, 0x3e, 0x37, 0x89, 0x73, 0xbf, 0xa9, 0x7c, 0x0f, 0xbe,
  0x85, 0x29, 0xca, 0xbd, 0x7e, 0x0c, 0x55, 0xbe, 0x36, 0x94, 0x03, 0xbe,
  0x4c, 0xfc, 0x6e, 0xbe, 0x91, 0xa0, 0x85, 0xbe, 0x27, 0xa7, 0xa3, 0xbf,
  0x2d, 0x33, 0x64, 0xbd, 0xff, 0xdf, 0x5b, 0xbf, 0xc9, 0xac, 0x7f, 0xbe,
  0x41, 0x81, 0x3f, 0xbf, 0x82, 0xc2, 0x65, 0xbe, 0x2a, 0x00, 0xd3, 0xbe,
  0x40, 0x5c, 0xdf, 0xbe, 0x0d, 0x96, 0x75, 0xbf, 0x4c, 0x8a, 0x06, 0xc0,
  0x04, 0xac, 0x31, 0xbe, 0x16, 0xa6, 0x3b, 0x3c, 0x25, 0xa2, 0x70, 0x3e,
  0xa0, 0x69, 0x45, 0xbd, 0x6f, 0xe4, 0x03, 0xbf, 0x77, 0xe7, 0x25, 0xbe,
  0x52, 0x2e, 0xe6, 0x3e, 0xbc, 0x0c, 0x12, 0xbf, 0xca, 0xea, 0x03, 0xbe,
  0x50, 0x5f, 0xcd, 0xbe, 0x6c, 0x8d, 0x8e, 0xbf, 0x60, 0x53, 0x28, 0xbd,
  0x1e, 0xbd, 0xa1, 0xbf, 0x6d, 0x0e, 0xf3, 0xbd, 0x05, 0x1a, 0xb4, 0x3e,
  0xe7, 0xcf, 0x8b, 0x3e, 0x5e, 0xa2, 0x4f, 0xbf, 0x99, 0xd3, 0xdc, 0xbd,
  0x4a, 0x62, 0x23, 0xc0, 0xbf, 0x39, 0xae, 0x3e, 0xbf, 0x73, 0xe3, 0xbe,
  0xa9, 0x70, 0xda, 0x3e, 0xe7, 0xe1, 0x02, 0x3e, 0x2d, 0x1e, 0x44, 0x3d,
  0x9a, 0xdd, 0x79, 0xbe, 0x5b, 0xde, 0xa0, 0x3e, 0x8a, 0xd0, 0x14, 0xc0,
  0x7e, 0x38, 0xd9, 0xbd, 0x32, 0x9f, 0x51, 0x3e, 0xbc, 0x9c, 0x03, 0xbe,
  0x06, 0xc6, 0x4f, 0x3e, 0xab, 0xe1, 0x2c, 0xbe, 0xff, 0xe4, 0x40, 0xbe,
  0x8f, 0x7e, 0x23, 0xbf, 0x1d, 0xa8, 0x86, 0xbf, 0x1e, 0xf5, 0x07, 0x3d,
  0xed, 0x2b, 0x44, 0xbf, 0xec, 0x13, 0x8f, 0xbe, 0x10, 0x7b, 0x79, 0x3f,
  0xcd, 0x9a, 0x31, 0xbd, 0xff, 0xa6, 0x38, 0xc0, 0xdc, 0x35, 0x72, 0x3e,
  0x19, 0x0c, 0x3b, 0x3e, 0x23, 0x31, 0x96, 0xbe, 0x20, 0x77, 0x11, 0x3d,
  0x95, 0xc0, 0x04, 0xbe, 0x44, 0x5b, 0x67, 0x3e, 0x31, 0x8a, 0x0b, 0xc0,
  0x30, 0xce, 0x07, 0xc0, 0xe6, 0x10, 0xda, 0x3e, 0x0c, 0xc2, 0xa5, 0x3d,
  0xaf, 0xf3, 0xa5, 0xbf, 0xd2, 0xb9, 0xd6, 0xbf, 0xd2, 0xce, 0x8d, 0xbe,
  0x89, 0x85, 0x68, 0xbd, 0x75, 0xd8, 0x9d, 0xbe, 0x47, 0x12, 0xdf, 0xbf,
  0x47, 0xcd, 0x4a, 0x3d, 0x3e, 0xd9, 0x21, 0xc0, 0x15, 0xcc, 0xf1, 0x3d,
  0x0a, 0xd3, 0x61, 0xbf, 0x97, 0xa7, 0x35, 0x3f, 0x3d, 0x5f, 0x8f, 0xbe,
  0x22, 0x32, 0x3e, 0x3e, 0xa8, 0x09, 0x86, 0x3e, 0xd3, 0x0a, 0x6a, 0xbf,
  0x5e, 0x13, 0x61, 0x3d, 0xb7, 0x21, 0xe5, 0xbf, 0x83, 0x2d, 0x1e, 0xc0,
  0x3e, 0xc8, 0x50, 0xbe, 0x42, 0xde, 0x71, 0x3f, 0xbe, 0x12, 0x48, 0xc0,
  0xdd, 0x7c, 0x74, 0xbf, 0xc7, 0xa3, 0xa0, 0xbf, 0x3f, 0x37, 0x3f, 0xc0,
  0x84, 0x4c, 0x47, 0xbd, 0xb7, 0xdc, 0xbe, 0x3e, 0x9d, 0x86, 0x32, 0xbe,
  0xef, 0x2d, 0x86, 0x3e, 0x52, 0x3d, 0x92, 0xbe, 0x08, 0x48, 0x85, 0xbe,
  0xb6, 0x84, 0x20, 0xc0, 0x25, 0x9b, 0x4f, 0xbf, 0xdb, 0xe6, 0x97, 0x3f,
  0xcc, 0x9f, 0x18, 0xbe, 0xe7, 0xa3, 0xfe, 0x3e, 0x21, 0x57, 0x00, 0xbf,
  0xfa, 0x90, 0xe6, 0xbe, 0x57, 0x65, 0x4d, 0x3f, 0x3c, 0x4d, 0x5c, 0x3f,
  0x3c, 0xa4, 0xb5, 0x3f, 0x38, 0xa7, 0x0b, 0xbe, 0x00, 0x90, 0x4d, 0xbf,
  0x2b, 0x57, 0x0c, 0x3f, 0x97, 0x46, 0x63, 0xbd, 0xf8, 0x37, 0x30, 0xbe,
  0x90, 0xcc, 0x0f, 0x3d, 0xa7, 0xbe, 0xf4, 0x3c, 0xc3, 0xaf, 0x69, 0x3d,
  0x22, 0x73, 0x6e, 0xbe, 0x1d, 0xee, 0x16, 0xbf, 0xf9, 0xe2, 0x3e, 0xbe,
  0x52, 0xe1, 0x48, 0xc0, 0xf6, 0x2f, 0x6b, 0xbd, 0x0c, 0xc0, 0x38, 0x3e,
  0xa0, 0xdf, 0x01, 0xbc, 0x87, 0x7d, 0x2d, 0xbf, 0x3d, 0x19, 0x8c, 0xbe,
  0xd0, 0xc8, 0x6c, 0x3e, 0x73, 0x6e, 0x07, 0xbe, 0x50, 0x1a, 0x68, 0x3e,
  0x12, 0x1c, 0xb6, 0xbd, 0x74, 0x37, 0x82, 0x3e, 0x6d, 0xbe, 0xe9, 0xbf,
  0xf4, 0x33, 0xd4, 0xbd, 0x2c, 0x07, 0x25, 0xbf, 0x84, 0x41, 0x9a, 0x3d,
  0x00, 0xa0, 0x75, 0xbd, 0x7c, 0x2d, 0xbd, 0xbf, 0xcf, 0xc5, 0x70, 0x3e,
  0xcf, 0x71, 0x5d, 0xbe, 0x7f, 0x0c, 0xba, 0xbf, 0xa5, 0xdc, 0xa9, 0x3e,
  0x23, 0xea, 0x3a, 0xbf, 0x33, 0x96, 0x36, 0xbf, 0xef, 0x58, 0xe7, 0xbf,
  0xab, 0x73, 0xa0, 0xbd, 0xb6, 0xe4, 0x60, 0xbe, 0xec, 0xe3, 0x35, 0xbe,
  0x75, 0x27, 0x7b, 0xbd, 0x6c, 0x46, 0x90, 0xbd, 0x25, 0x92, 0xe8, 0x3e,
  0x18, 0x31, 0x3a, 0x3e, 0x20, 0xc8, 0x32, 0xbd, 0x52, 0x1b, 0xd6, 0xbf,
  0x7a, 0xb3, 0x55, 0x3e, 0x1a, 0xcf, 0x5c, 0x3e, 0x70, 0x3d, 0x12, 0x3e,
  0xc7, 0x67, 0xf1, 0xbd, 0x60, 0x6e, 0x4f, 0xbc, 0x1a, 0xcd, 0x0d, 0xc0,
  0xfd, 0x34, 0x90, 0xbd, 0xda, 0x91, 0x53, 0xbf, 0x0b, 0x11, 0x25, 0xbe,
  0xfd, 0xad, 0x1e, 0xbe, 0x41, 0x05, 0x90, 0x3e, 0x3c, 0xe3, 0x7b, 0xbf,
  0xed, 0x76, 0x13, 0xc0, 0x0c, 0xed, 0x21, 0xbc, 0x4a, 0x45, 0xd6, 0xbf,
  0xc8, 0x8c, 0xba, 0xbe, 0x4c, 0xab, 0xdd, 0xbe, 0x2a, 0xec, 0x02, 0xc0,
  0xeb, 0xa7, 0x20, 0xbf, 0xf1, 0x78, 0x69, 0xbf, 0xa9, 0xbd, 0x59, 0x3e,
  0x0d, 0xe8, 0x0d, 0xbf, 0x31, 0xfd, 0x11, 0xc0, 0xe0, 0xbd, 0x24, 0xbf,
  0x88, 0x35, 0x72, 0x3e, 0x20, 0x32, 0xdf, 0xbe, 0xc1, 0x39, 0x0b, 0x3e,
  0x19, 0x17, 0xf6, 0xbd, 0x43, 0xcf, 0x47, 0xbf, 0xdd, 0x49, 0x07, 0xc0,
  0x4b, 0x58, 0x7b, 0xbc, 0xaf, 0xa8, 0xd5, 0xbf, 0x85, 0x87, 0x09, 0x3e,
  0x5b, 0x70, 0x7d, 0xbd, 0x4a, 0x1e, 0x89, 0xbe, 0x20, 0xe5, 0xb6, 0x3d,
  0x82, 0xa2, 0x07, 0xbe, 0x2f, 0xbb, 0x7d, 0xbe, 0xb5, 0xa8, 0x9a, 0xbf,
  0x4c, 0x84, 0x60, 0x3e, 0x50, 0xb0, 0x14, 0x3f, 0x14, 0xbe, 0x54, 0xbf,
  0xb3, 0x3b, 0x9e, 0xbf, 0xe0, 0x02, 0x72, 0x3d, 0xfb, 0xcf, 0xb3, 0xbe,
  0x76, 0xd0, 0xe4, 0xbe, 0x75, 0x3d, 0xb9, 0x3e, 0xe9, 0xb5, 0xad, 0x3f,
  0x25, 0x04, 0xa7, 0xbe, 0xbb, 0x48, 0x0c, 0x3f, 0x95, 0xe8, 0x77, 0xbe,
  0x39, 0xd2, 0xce, 0xbd, 0x8a, 0x47, 0x46, 0xbe, 0xaa, 0x74, 0x1c, 0xc0,
  0xea, 0xa7, 0x72, 0xbe, 0x46, 0x2a, 0x21, 0x3f, 0xbd, 0xe0, 0x50, 0xbe,
  0x00, 0xb2, 0x13, 0xbd, 0xe7, 0x27, 0x14, 0xc0, 0x0d, 0x3e, 0x89, 0x3d,
  0xec, 0x46, 0xde, 0xbf, 0xda, 0xcc, 0x39, 0xbf, 0xa2, 0xee, 0x80, 0x3e,
  0xa9, 0xd9, 0x5a, 0xbf, 0x63, 0x26, 0x90, 0x3e, 0x98, 0xe5, 0xf4, 0x3d,
  0x78, 0x8a, 0x57, 0xbe, 0x8a, 0xde, 0x11, 0x3f, 0x48, 0xae, 0x1f, 0x3e,
  0x5f, 0xd9, 0x96, 0x3f, 0xfd, 0x99, 0x27, 0x3e, 0x42, 0xca, 0x21, 0xc0,
  0x2b, 0x1a, 0xce, 0xbd, 0x20, 0x2c, 0x9d, 0x3e, 0xd9, 0x2f, 0x47, 0xbf,
  0x9e, 0xe6, 0xfb, 0x3f, 0xe4, 0xff, 0xb4, 0xbf, 0x4f, 0x60, 0x0c, 0x3f,
  0x59, 0x0c, 0x1e, 0xc0, 0x7f, 0x4c, 0x03, 0xc0, 0xed, 0x70, 0x2c, 0xc0,
  0xdc, 0x96, 0x23, 0xbf, 0xde, 0x39, 0xec, 0xbf, 0xdd, 0xaf, 0x88, 0xbe,
  0x29, 0x95, 0x1a, 0xbc, 0x5f, 0x8d, 0x18, 0xc0, 0x23, 0xcc, 0xa3, 0xbf,
  0xe6, 0x13, 0x17, 0xc0, 0xd0, 0x9d, 0xff, 0x3c, 0xbd, 0xb8, 0x03, 0x3e,
  0x96, 0xfd, 0xd1, 0xbf, 0x7b, 0x0a, 0x6c, 0x3f, 0x6a, 0x60, 0x31, 0xbc,
  0x0f, 0xc7, 0xc2, 0x3f, 0xc6, 0x10, 0xf2, 0xbf, 0x9d, 0x25, 0xc1, 0x3c,
  0xde, 0x61, 0x1f, 0xbe, 0xda, 0xeb, 0xec, 0xbe, 0x8b, 0x3f, 0x4c, 0xbe,
  0x49, 0x1b, 0xa1, 0xbf, 0xa8, 0x74, 0x38, 0x3e, 0x5b, 0x7b, 0x8f, 0xbe,
  0x40, 0xca, 0xb5, 0x3c, 0x10, 0x87, 0x56, 0x3e, 0xb3, 0xe7, 0x55, 0xbf,
  0x85, 0x12, 0x0e, 0x3e, 0xf7, 0x38, 0x8d, 0x3e, 0x7c, 0x26, 0x81, 0x3e,
  0xc6, 0xaf, 0x16, 0x3f, 0x57, 0xea, 0x7c, 0xbf, 0x98, 0x06, 0xe7, 0xbf,
  0xba, 0x36, 0x4b, 0x3e, 0xef, 0x27, 0xbc, 0xbf, 0x3c, 0x0d, 0x76, 0xbd,
  0x14, 0x0f, 0xa2, 0x3e, 0x9e, 0x70, 0x1c, 0xbf, 0xef, 0xf7, 0x46, 0xbd,
  0xe1, 0xb1, 0xd2, 0x3f, 0xcc, 0x87, 0xa8, 0xbf, 0xf0, 0xc4, 0xf2, 0xbf,
  0xd4, 0x7c, 0xcc, 0x3f, 0x04, 0x70, 0x18, 0xbe, 0x56, 0xe8, 0x96, 0x3f,
  0xde, 0xca, 0x42, 0xbe, 0x84, 0x02, 0xec, 0x3e, 0xbc, 0x35, 0xf1, 0xbe,
  0xe9, 0xd6, 0x4c, 0xbe, 0xbf, 0x25, 0x80, 0xbf, 0x07, 0xbf, 0xa0, 0xbe,
  0xa2, 0xe5, 0xb2, 0x3f, 0x13, 0x11, 0xb2, 0x3f, 0x40, 0xb6, 0x02, 0xbf,
  0x58, 0x02, 0x06, 0xbd, 0x2e, 0x7f, 0x4c, 0xbf, 0xd2, 0x69, 0x62, 0xbe,
  0xa6, 0x53, 0x94, 0x3e, 0x35, 0xee, 0x92, 0xbe, 0xc5, 0x92, 0xc3, 0xbf,
  0x59, 0xee, 0x91, 0x3c, 0x37, 0x76, 0x25, 0xbe, 0x91, 0x96, 0x82, 0xbf,
  0xa7, 0x83, 0xb9, 0xbf, 0x0a, 0xcb, 0x7a, 0x3f, 0x54, 0x28, 0x89, 0x3f,
  0x8e, 0x9d, 0x94, 0x3f, 0xd6, 0x77, 0x26, 0xbf, 0xb3, 0xe8, 0x6f, 0xbe,
  0x06, 0x19, 0x55, 0x3f, 0xd1, 0xee, 0x1e, 0xbe, 0xed, 0x5e, 0xa1, 0x3f,
  0xa5, 0x7a, 0x89, 0x3e, 0xb0, 0x94, 0xab, 0x3f, 0x6e, 0xfe, 0x37, 0x3e,
  0xbc, 0x22, 0x42, 0xbe, 0x9a, 0xd9, 0xff, 0xff, 0x04, 0x00, 0x00, 0x00,
  0x00, 0x20, 0x00, 0x00, 0xd7, 0x2f, 0x0c, 0x3e, 0x6f, 0x29, 0xe1, 0xbe,
  0x4e, 0xab, 0x8a, 0x3f, 0xa4, 0x52, 0x33, 0xbe, 0xaf, 0x76, 0xee, 0x3e,
  0x97, 0xec, 0x56, 0xbf, 0xc8, 0x74, 0xcb, 0xbd, 0x50, 0xeb, 0xdc, 0x3e,
  0x6f, 0xf6, 0x19, 0x3f, 0x30, 0x47, 0x9b, 0xbd, 0xc0, 0x43, 0x05, 0x3c,
  0x4f, 0x94, 0x8e, 0x3f, 0x40, 0x3c, 0xc0, 0x3e, 0x10, 0xc6, 0x34, 0x3d,
  0xa8, 0xbf, 0x30, 0xbe, 0x8e, 0x0b, 0x51, 0x3e, 0xf8, 0x2c, 0x41, 0x3e,
  0x00, 0xcb, 0x59, 0xbc, 0x62, 0x8a, 0x6c, 0x3d, 0xca, 0x17, 0x73, 0x3f,
  0xb0, 0xb9, 0x2b, 0x3e, 0xfc, 0x2d, 0xa0, 0x3f, 0xc3, 0x6e, 0x63, 0x3e,
  0x10, 0xad, 0x09, 0x3e, 0x42, 0xe5, 0x7b, 0x3f, 0x60, 0x3d, 0x29, 0xbd,
  0x2f, 0x01, 0x56, 0xbf, 0x08, 0xf4, 0x62, 0x3e, 0x91, 0x8c, 0x2e, 0xbe,
  0xd1, 0x24, 0xa4, 0x3f, 0x60, 0x76, 0x46, 0x3d, 0xd4, 0x75, 0x14, 0xbe,
  0x51, 0xe1, 0x89, 0x3d, 0x16, 0xaf, 0xbe, 0x3e, 0x78, 0x9b, 0x26, 0xbe,
  0xe0, 0x6e, 0xbc, 0xbd, 0xc7, 0x1e, 0x88, 0x3e, 0xb8, 0xa8, 0x0e, 0x3f,
  0x00, 0xa0, 0x29, 0xbd, 0x78, 0xc1, 0xbe, 0x3e, 0xbf, 0x83, 0x4b, 0xbf,
  0x80, 0x92, 0x7a, 0xbd, 0x60, 0xe5, 0x84, 0xbc, 0xc6, 0xa6, 0xc9, 0xbc,
  0xb1, 0xa4, 0x6d, 0xbd, 0xe0, 0xc8, 0xfa, 0x3c, 0xb4, 0x38, 0x72, 0x3e,
  0x17, 0x09, 0x64, 0xbe, 0xe8, 0x6f, 0x08, 0x3e, 0x9c, 0x88, 0x05, 0x3e,
  0xb2, 0x88, 0x81, 0xbe, 0xf2, 0x5e, 0x72, 0x3e, 0x68, 0xc7, 0xf2, 0x3d,
  0xf7, 0x3d, 0x0e, 0xbe, 0xc0, 0xf4, 0x39, 0xbc, 0x70, 0x56, 0xab, 0xbd,
  0x58, 0xfa, 0x6d, 0xbe, 0x00, 0xe5, 0xa2, 0xbc, 0x91, 0xa1, 0xfd, 0x3e,
  0x88, 0x14, 0x48, 0xbe, 0x29, 0xf5, 0x50, 0xbe, 0xa8, 0x4e, 0x2f, 0xbe,
  0xd0, 0x9d, 0x95, 0x3d, 0xe0, 0xcd, 0x52, 0x3e, 0xbb, 0x6e, 0xd1, 0x3e,
  0x26, 0x48, 0x5e, 0xbd, 0x7a, 0x4a, 0xfd, 0xbe, 0x90, 0x90, 0x46, 0x3e,
  0xd2, 0x94, 0xba, 0x3e, 0x75, 0x82, 0xe4, 0x3e, 0xf8, 0xbb, 0x0d, 0xbe,
  0x83, 0x55, 0x2b, 0x3e, 0xc3, 0x8e, 0x94, 0x3e, 0xa8, 0xd5, 0xb7, 0x3d,
  0x38, 0x5c, 0x80, 0x3d, 0xe8, 0xa7, 0x7b, 0xbe, 0xf2, 0xc6, 0x5e, 0x3f,
  0x50, 0xff, 0xf7, 0x3d, 0x78, 0x52, 0x2a, 0x3e, 0x66, 0xb2, 0xf1, 0x3e,
  0x88, 0x47, 0xc1, 0x3d, 0x40, 0xd0, 0x13, 0x3e, 0xb1, 0x11, 0x38, 0x3f,
  0x80, 0x23, 0x5e, 0x3e, 0x28, 0x72, 0x00, 0x3e, 0x37, 0x42, 0x34, 0xbf,
  0xb0, 0x71, 0xc5, 0x3b, 0x90, 0xab, 0xa3, 0x3d, 0x76, 0xe9, 0x69, 0xbe,
  0xc0, 0x6b, 0x6f, 0x3c, 0xd2, 0xb0, 0xd2, 0x3f, 0x48, 0xe6, 0x90, 0x3d,
  0xd6, 0x86, 0xed, 0xbd, 0xf3, 0x29, 0x27, 0xbf, 0x00, 0x81, 0x6b, 0x3b,
  0x80, 0x19, 0xa2, 0xbb, 0x07, 0x06, 0xf8, 0x3e, 0xe9, 0xce, 0xca, 0x3c,
  0x77, 0xab, 0x10, 0xbf, 0x80, 0x63, 0xc9, 0x3c, 0xf7, 0x2e, 0x86, 0x3e,
  0xf1, 0x9b, 0x65, 0x3f, 0x10, 0xa6, 0xb5, 0x3d, 0x64, 0xba, 0x77, 0x3e,
  0x72, 0xe8, 0x0c, 0xbe, 0x58, 0x6b, 0xbf, 0x3d, 0xb8, 0x55, 0x93, 0xbd,
  0xbb, 0x30, 0xd2, 0xbc, 0x40, 0x67, 0xaf, 0x3e, 0xb4, 0x50, 0x08, 0xbe,
  0xa0, 0xd0, 0x4e, 0x3e, 0x07, 0x27, 0x79, 0x3f, 0x90, 0x3d, 0x0a, 0xbd,
  0x10, 0x6f, 0xf0, 0x3d, 0xd3, 0xa8, 0xa0, 0x3f, 0xef, 0x5e, 0x22, 0x3f,
  0x34, 0x22, 0x55, 0xbe, 0xa8, 0xfa, 0x33, 0xbf, 0x72, 0xb9, 0x75, 0xbe,
  0x80, 0x87, 0xab, 0xbc, 0xa0, 0x75, 0x1b, 0xbf, 0x40, 0x4a, 0x70, 0x3d,
  0x88, 0xb9, 0x90, 0x3f, 0x58, 0x80, 0xb5, 0xbd, 0x96, 0x87, 0x0f, 0xbe,
  0x6c, 0x39, 0x8a, 0xbf, 0xd0, 0x74, 0x08, 0xbe, 0x48, 0x37, 0x93, 0xbd,
  0xcb, 0x08, 0x92, 0xbd, 0x39, 0xc3, 0x88, 0xbe, 0x61, 0x59, 0x8f, 0x3f,
  0x38, 0x4e, 0x01, 0x3e, 0xf3, 0x13, 0xe5, 0x3e, 0x22, 0xa9, 0xd2, 0xbe,
  0x3c, 0x51, 0x0e, 0x3e, 0x55, 0xe6, 0x98, 0x3e, 0x30, 0x58, 0x12, 0x3f,
  0x7c, 0x86, 0x5c, 0x3e, 0xb0, 0x3f, 0xc6, 0x3d, 0xf4, 0x74, 0x02, 0x3f,
  0x57, 0x4b, 0x0f, 0x3f, 0x40, 0xe3, 0x55, 0x3d, 0x00, 0x2e, 0xaa, 0x3a,
  0x8a, 0xaf, 0x44, 0x3e, 0x30, 0xc9, 0x74, 0xbe, 0xa0, 0xd0, 0xf8, 0x3d,
  0x93, 0xfa, 0xe6, 0xbe, 0x4d, 0x53, 0x7b, 0x3e, 0x38, 0x4d, 0x3c, 0x3e,
  0x5f, 0xe4, 0x6c, 0x3f, 0x41, 0x75, 0x60, 0x3e, 0x10, 0x95, 0x66, 0xbd,
  0xf9, 0x34, 0x75, 0x3f, 0x80, 0x9f, 0xf4, 0x3c, 0x36, 0x05, 0x97, 0xbe,
  0x40, 0x67, 0xa2, 0x3c, 0x6b, 0xbc, 0x4b, 0xbd, 0x83, 0x92, 0x83, 0x3f,
  0xa8, 0xe3, 0xeb, 0x3d, 0x20, 0x59, 0x7e, 0x3d, 0x12, 0x2a, 0x55, 0x3e,
  0xe5, 0xc7, 0x5b, 0x3d, 0xd9, 0xb4, 0xe5, 0xbd, 0x1c, 0xa2, 0x54, 0x3e,
  0x3b, 0x24, 0x11, 0x3e, 0x30, 0x11, 0x49, 0x3f, 0x90, 0xb6, 0xaa, 0xbd,
  0xc1, 0xdd, 0x1e, 0x3f, 0x67, 0x59, 0xdd, 0xbd, 0x10, 0xa3, 0x23, 0xbe,
  0x00, 0x5b, 0x37, 0xbe, 0x97, 0xc9, 0x6f, 0xbf, 0x9e, 0x1c, 0xb9, 0xbd,
  0x10, 0x07, 0xd7, 0x3d, 0xf0, 0xe8, 0x15, 0x3e, 0xfc, 0xa5, 0x17, 0xbf,
  0x90, 0x13, 0x16, 0x3d, 0xc0, 0xf3, 0x25, 0x3d, 0x5b, 0x3d, 0xac, 0xbd,
  0x76, 0xc1, 0xaf, 0xbf, 0x48, 0x6d, 0xe4, 0xbd, 0x84, 0x9b, 0x98, 0xbe,
  0xca, 0x7f, 0xec, 0xbd, 0xb8, 0xed, 0xd8, 0x3d, 0x9c, 0xf4, 0x4a, 0x3e,
  0x68, 0x00, 0xac, 0xbd, 0xb3, 0xcb, 0xa1, 0x3f, 0x00, 0x98, 0x8d, 0xbd,
  0xfe, 0x99, 0x3d, 0x3e, 0x63, 0x78, 0xbc, 0xbe, 0xec, 0x4d, 0x6f, 0x3e,
  0x10, 0x80, 0x37, 0x3d, 0xf0, 0x65, 0x1a, 0x3e, 0x86, 0xd0, 0x62, 0xbe,
  0x64, 0x3b, 0x0d, 0x3e, 0x48, 0x00, 0x53, 0xbe, 0x9d, 0xc3, 0xe4, 0x3d,
  0xf8, 0x91, 0x3a, 0xbe, 0xcc, 0x4e, 0x5f, 0xbe, 0x49, 0x98, 0x2e, 0xbe,
  0x5a, 0xba, 0x19, 0xbe, 0x90, 0x40, 0x55, 0xbe, 0x48, 0x05, 0x3f, 0x3e,
  0x37, 0x01, 0xc3, 0xbd, 0xf1, 0x80, 0xe2, 0xbd, 0x3c, 0x49, 0x53, 0x3e,
  0xc0, 0x77, 0x27, 0x3d, 0x72, 0x18, 0x9b, 0xbd, 0x58, 0xe4, 0x3d, 0xbe,
  0xe0, 0xdf, 0x31, 0xbd, 0xfc, 0x7b, 0x80, 0xbe, 0x43, 0x9a, 0x42, 0xbe,
  0xf4, 0xa8, 0x1b, 0x3e, 0x68, 0x50, 0x02, 0x3e, 0x3b, 0x74, 0x6b, 0xbe,
  0x88, 0x50, 0x2e, 0x3e, 0xa8, 0x44, 0x1a, 0x3e, 0xc4, 0x76, 0x49, 0x3e,
  0x37, 0x92, 0x41, 0x3d, 0xfc, 0xc9, 0x00, 0x3e, 0x83, 0x22, 0x32, 0xbe,
  0xb8, 0x33, 0x5f, 0xbd, 0x30, 0x7c, 0x3a, 0x3e, 0x90, 0xe8, 0x7b, 0xbd,
  0x1a, 0x5f, 0x69, 0x3e, 0x31, 0x0d, 0x6c, 0xbe, 0x4d, 0xc5, 0x10, 0x3f,
  0xf0, 0x43, 0x76, 0x3e, 0x87, 0x15, 0x02, 0xbf, 0xb8, 0x98, 0xec, 0xbe,
  0xf8, 0x2b, 0x0d, 0xbe, 0x63, 0xa9, 0xd1, 0xbe, 0x9e, 0x50, 0xbb, 0x3e,
  0x08, 0x74, 0x4e, 0x3e, 0xe0, 0x49, 0x42, 0xbe, 0x36, 0xbd, 0x65, 0x3f,
  0x1d, 0x87, 0x84, 0x3f, 0x2c, 0xe0, 0x3c, 0xbe, 0x34, 0xae, 0x19, 0xbe,
  0xca, 0xb3, 0x41, 0x3f, 0x88, 0x24, 0xeb, 0xbd, 0xb0, 0xb8, 0x0f, 0xbe,
  0x75, 0x21, 0x03, 0x3f, 0xca, 0x8f, 0xde, 0x3f, 0xd0, 0x1f, 0x35, 0xbe,
  0x06, 0xa9, 0xda, 0x3e, 0x24, 0xde, 0xd4, 0x3b, 0xe0, 0x85, 0x86, 0x3c,
  0xe5, 0x16, 0x14, 0x3f, 0x88, 0x2a, 0x49, 0xbe, 0x8c, 0xf0, 0x5a, 0xbf,
  0x80, 0x25, 0x24, 0x3e, 0x25, 0x67, 0x84, 0x3a, 0x14, 0x9d, 0x39, 0x3f,
  0x68, 0xa4, 0x96, 0xbd, 0xcc, 0xf1, 0x33, 0x3e, 0xb0, 0xd7, 0x33, 0xbe,
  0x00, 0x7a, 0x3f, 0x3c, 0x38, 0xcb, 0x8c, 0xbd, 0x90, 0x08, 0xfe, 0xbd,
  0x40, 0x1d, 0xae, 0xbd, 0xf0, 0xb3, 0xea, 0x3d, 0x58, 0x1e, 0x37, 0xbe,
  0x08, 0xb0, 0xff, 0x3d, 0xb0, 0x37, 0x18, 0xbe, 0x60, 0xfa, 0x11, 0x3d,
  0x90, 0x85, 0x05, 0x3d, 0xc4, 0x2f, 0x3a, 0x3e, 0xc8, 0xaf, 0x39, 0xbe,
  0x80, 0xb2, 0x21, 0xbd, 0xe8, 0x80, 0xfa, 0x3d, 0x04, 0x35, 0x4a, 0x3e,
  0xf0, 0x37, 0x43, 0x3d, 0x00, 0x69, 0x42, 0xbd, 0xf8, 0x4b, 0x21, 0xbe,
  0x00, 0xf6, 0xaa, 0xbc, 0x90, 0xcf, 0xc4, 0x3d, 0x58, 0x7e, 0x6f, 0xbe,
  0xb0, 0xad, 0x7e, 0xbd, 0x68, 0xb9, 0x29, 0x3e, 0xb0, 0xb8, 0x38, 0xbe,
  0x80, 0xc3, 0xfa, 0x3b, 0x90, 0x88, 0xae, 0xbd, 0x08, 0x5d, 0x78, 0xbe,
  0x18, 0x7c, 0x29, 0x3e, 0x10, 0x50, 0x9b, 0x3d, 0x00, 0xb8, 0xbb, 0xbd,
  0x24, 0xf0, 0x4a, 0x3e, 0xed, 0xdb, 0x07, 0x3e, 0x25, 0x45, 0x74, 0x3e,
  0x83, 0xbb, 0xca, 0x3e, 0x4c, 0xa3, 0x1d, 0x3e, 0xd7, 0x9d, 0x31, 0x3f,
  0xb7, 0x7b, 0x86, 0x3e, 0xb4, 0x04, 0x36, 0x3e, 0x59, 0x3f, 0xc2, 0x3e,
  0x72, 0xfb, 0xf5, 0x3e, 0xb0, 0xa2, 0xb4, 0x3d, 0xdc, 0xcd, 0x5f, 0xbe,
  0x1d, 0xde, 0xb4, 0xbb, 0x8a, 0x96, 0x4f, 0xbf, 0x00, 0x28, 0x0e, 0x3c,
  0x20, 0x66, 0xd4, 0xbd, 0xb9, 0x5f, 0xb5, 0xbe, 0xc8, 0x4b, 0xf9, 0xbd,
  0x80, 0x6c, 0x1b, 0xbc, 0xf9, 0x03, 0x62, 0xbe, 0x6e, 0x0a, 0xb2, 0xbf,
  0x2c, 0x1f, 0x5f, 0xbe, 0xd9, 0x12, 0xa0, 0x3e, 0x76, 0x0d, 0x8d, 0xbd,
  0xc0, 0x03, 0xfa, 0xbd, 0xb9, 0xbc, 0x1d, 0x3f, 0x24, 0x22, 0x02, 0x3e,
  0x68, 0xda, 0x6a, 0xbe, 0x58, 0xe8, 0x1a, 0x3e, 0x7e, 0xce, 0x61, 0xbe,
  0x6b, 0x1b, 0x68, 0x3f, 0x88, 0x37, 0x17, 0x3e, 0xe0, 0x60, 0xa2, 0x3c,
  0x68, 0xff, 0xa0, 0xbd, 0x56, 0x49, 0xb5, 0x3d, 0x98, 0x18, 0x98, 0xbd,
  0xb4, 0xfe, 0x5d, 0xbe, 0xa6, 0x1e, 0x34, 0x3e, 0xdf, 0x38, 0x57, 0xbe,
  0x80, 0x9c, 0x45, 0x3c, 0xac, 0x49, 0x56, 0xbe, 0xe7, 0x1f, 0x74, 0xbe,
  0xcc, 0x1d, 0x4f, 0x3e, 0x90, 0x93, 0xc9, 0x3d, 0xb8, 0x9e, 0x94, 0xbd,
  0x44, 0xb5, 0x0f, 0xbe, 0xd0, 0x72, 0x94, 0xbd, 0xe0, 0xa7, 0x49, 0x3d,
  0xe8, 0xbb, 0x13, 0x3e, 0xf8, 0xba, 0x89, 0xbd, 0x40, 0x24, 0x25, 0x3c,
  0x4a, 0xbd, 0x1e, 0x3d, 0xcc, 0xdc, 0x2b, 0xbe, 0x28, 0x48, 0xd7, 0xbd,
  0x1a, 0x64, 0x08, 0x3e, 0x54, 0x34, 0x5b, 0xbe, 0x68, 0x04, 0x5e, 0xbe,
  0xa0, 0x9d, 0xc8, 0xbd, 0xb0, 0x3c, 0x46, 0xbd, 0x00, 0x25, 0x7b, 0x3d,
  0x90, 0xf7, 0x1e, 0xbd, 0xb4, 0x05, 0x10, 0x3e, 0xbe, 0xa8, 0x34, 0xbe,
  0xe0, 0x95, 0x69, 0x3e, 0x50, 0x75, 0x77, 0xbe, 0x10, 0xf1, 0x02, 0xbd,
  0xf8, 0x8b, 0x49, 0xbe, 0xb0, 0xdb, 0x0b, 0xbe, 0x40, 0xe5, 0x02, 0xbd,
  0x68, 0xfb, 0xc1, 0xbd, 0x98, 0x68, 0xf2, 0x3d, 0x7c, 0xda, 0x6d, 0x3e,
  0xc0, 0xa1, 0x74, 0xbe, 0x1c, 0x58, 0x28, 0x3e, 0x50, 0x5d, 0xd1, 0xbd,
  0x80, 0x9a, 0x38, 0x3c, 0xcc, 0x58, 0x2a, 0xbe, 0xd0, 0xec, 0x02, 0x3d,
  0x20, 0x78, 0x40, 0xbd, 0x3c, 0xa0, 0x43, 0xbe, 0x00, 0x9d, 0x75, 0xbd,
  0x7c, 0xaa, 0x4a, 0x3e, 0xdc, 0x4b, 0x01, 0x3e, 0x60, 0x4c, 0xa4, 0xbd,
  0xe0, 0xac, 0xae, 0xbd, 0xb0, 0x59, 0x70, 0x3d, 0x20, 0x03, 0x92, 0xbd,
  0xa0, 0x75, 0x61, 0xbd, 0x5c, 0xea, 0x3d, 0xbe, 0x80, 0x57, 0x62, 0x3d,
  0x28, 0x10, 0x24, 0x3e, 0x90, 0x99, 0xe3, 0x3d, 0x50, 0x35, 0x3b, 0xbe,
  0xa0, 0xae, 0x4d, 0x3e, 0x40, 0x75, 0x03, 0xbe, 0x20, 0x54, 0x18, 0x3e,
  0xd8, 0xb4, 0x60, 0x3e, 0xfa, 0x97, 0x84, 0x3e, 0xc2, 0x05, 0xe7, 0x3b,
  0xfa, 0x02, 0xac, 0xbe, 0x70, 0xa7, 0x47, 0x3d, 0x39, 0x48, 0x49, 0xbe,
  0xc4, 0xab, 0xab, 0x3e, 0x20, 0x7b, 0x96, 0xbc, 0x68, 0x2e, 0x6d, 0x3e,
  0xba, 0xef, 0x29, 0x3e, 0x8c, 0x67, 0x70, 0xbe, 0xe0, 0x2e, 0xed, 0x3d,
  0xda, 0x9d, 0xfc, 0xbc, 0xcc, 0x99, 0x5d, 0x3f, 0x20, 0x0a, 0xc4, 0xbd,
  0x80, 0x88, 0xb8, 0xbc, 0xbd, 0x39, 0x58, 0x3f, 0x40, 0x5b, 0xd0, 0x3d,
  0xf4, 0xd0, 0x19, 0x3e, 0x66, 0x87, 0x8b, 0x3f, 0x6a, 0xba, 0x42, 0x3f,
  0x50, 0x0f, 0x25, 0x3e, 0x3a, 0x34, 0xd0, 0xbe, 0xa0, 0x27, 0xa9, 0x3c,
  0x00, 0x84, 0x2e, 0xbc, 0xef, 0x18, 0x86, 0x3e, 0xbc, 0x6c, 0x0a, 0x3e,
  0x9d, 0x93, 0x9b, 0x3f, 0x6c, 0x48, 0x3b, 0xbe, 0x40, 0xe3, 0x8c, 0x3c,
  0x85, 0x0a, 0x1e, 0xbf, 0xc0, 0x0c, 0xb4, 0x3c, 0xc0, 0x31, 0x32, 0x3c,
  0xe4, 0x95, 0x30, 0xbe, 0x3c, 0x2f, 0x4a, 0xbe, 0x34, 0x83, 0x27, 0xbe,
  0x08, 0x71, 0x22, 0x3e, 0xdc, 0x3d, 0x35, 0x3e, 0xd0, 0xb5, 0x57, 0xbe,
  0xe4, 0x2a, 0x32, 0xbe, 0x70, 0x00, 0x20, 0x3d, 0x18, 0x97, 0x57, 0xbe,
  0x54, 0x2c, 0x03, 0xbe, 0x30, 0xc7, 0x34, 0x3d, 0xa4, 0x25, 0x7a, 0x3e,
  0x70, 0x8c, 0x4f, 0xbd, 0xb4, 0x22, 0x27, 0x3e, 0x74, 0xb0, 0x07, 0xbe,
  0x60, 0x65, 0x01, 0xbd, 0xf8, 0xcc, 0xcc, 0xbd, 0xe0, 0x27, 0x15, 0xbd,
  0xdc, 0xab, 0x5f, 0xbe, 0x00, 0xd4, 0x42, 0x3c, 0x64, 0xcf, 0x14, 0x3e,
  0xa8, 0x8e, 0xcd, 0xbd, 0x80, 0xd5, 0xff, 0xbd, 0x20, 0xdb, 0x38, 0x3d,
  0xd4, 0xa0, 0x52, 0xbe, 0x64, 0x1c, 0x75, 0xbe, 0xf0, 0x97, 0x3d, 0xbd,
  0xbc, 0xd6, 0x6d, 0xbe, 0x98, 0xa9, 0x07, 0x3e, 0x00, 0xfd, 0x37, 0xbb,
  0x80, 0x83, 0x04, 0x3e, 0x80, 0x0e, 0xcd, 0xbd, 0x10, 0x5b, 0xde, 0xbd,
  0xc7, 0x3b, 0xd5, 0x3d, 0x3d, 0xf8, 0x31, 0x3f, 0x00, 0x5a, 0x9b, 0xbb,
  0x73, 0x59, 0xbd, 0x3d, 0x88, 0xb9, 0x06, 0xbf, 0xf4, 0x1c, 0x54, 0x3e,
  0x77, 0x4a, 0xab, 0xbd, 0x3e, 0x91, 0xa4, 0x3c, 0x00, 0x45, 0x5a, 0xbc,
  0x80, 0x7a, 0xa4, 0x3b, 0x52, 0x24, 0x8e, 0x3f, 0xa8, 0x61, 0xf4, 0xbe,
  0xb4, 0xee, 0x4e, 0x3e, 0xb4, 0x98, 0x04, 0xbe, 0xed, 0xe9, 0x07, 0xbe,
  0x50, 0xd1, 0x9e, 0x3d, 0xa0, 0x94, 0x00, 0x3d, 0x8a, 0x9b, 0x26, 0xbf,
  0x07, 0x5c, 0x07, 0x3f, 0xe0, 0x4a, 0xf0, 0x3c, 0x34, 0x19, 0x03, 0x3f,
  0xd6, 0x68, 0x25, 0xbe, 0x50, 0x3f, 0x43, 0xbd, 0x70, 0x08, 0xd9, 0x3e,
  0x80, 0xd0, 0x25, 0x3d, 0xbd, 0x65, 0xde, 0xbf, 0xf4, 0x21, 0x01, 0x3e,
  0xc1, 0x5f, 0x52, 0x3e, 0x6e, 0xcb, 0x82, 0x3f, 0x00, 0x94, 0x81, 0xbb,
  0xec, 0x48, 0x61, 0xbe, 0x7b, 0x5a, 0xe0, 0x3e, 0x4f, 0xea, 0xc4, 0xbe,
  0x9b, 0x79, 0x87, 0xbe, 0xe8, 0xf6, 0xb7, 0x3d, 0xe2, 0x3b, 0xbf, 0xbe,
  0xd1, 0x3b, 0x20, 0x3e, 0x64, 0x94, 0x44, 0xbe, 0xf6, 0x96, 0x9d, 0xbd,
  0x8e, 0xbf, 0xb0, 0xbc, 0xe4, 0xe9, 0x18, 0x3e, 0x4c, 0x20, 0x3f, 0x3e,
  0x44, 0xd5, 0x4c, 0x3f, 0xce, 0xf5, 0x8e, 0x3f, 0x10, 0x7a, 0x18, 0x3d,
  0x80, 0x83, 0x3e, 0xbc, 0xd6, 0x7c, 0x7d, 0x3f, 0x90, 0x9c, 0x25, 0x3e,
  0x20, 0x47, 0x5c, 0xbe, 0x84, 0x06, 0x44, 0x3f, 0xb6, 0x93, 0xcb, 0x3f,
  0xf8, 0x49, 0xa3, 0x3d, 0x7f, 0x6e, 0xdb, 0xbe, 0x75, 0x39, 0x54, 0xbd,
  0xa0, 0xb1, 0x21, 0x3d, 0x62, 0x2f, 0x0d, 0x3a, 0x4c, 0x70, 0x71, 0x3e,
  0x18, 0x81, 0x93, 0x3e, 0xb0, 0x7b, 0x06, 0xbe, 0xd9, 0x5a, 0x68, 0xbe,
  0xe3, 0x9c, 0xcf, 0xbe, 0xa4, 0x0b, 0x13, 0xbe, 0x40, 0xde, 0xca, 0xbd,
  0xa2, 0xf4, 0x89, 0x3e, 0x23, 0xff, 0x21, 0x3f, 0xf6, 0xff, 0xa1, 0xbe,
  0x00, 0xae, 0x84, 0xbb, 0xed, 0xf5, 0x0a, 0x3f, 0x9d, 0x1e, 0x81, 0x3f,
  0x98, 0x20, 0x0a, 0xbe, 0x9a, 0x89, 0xc0, 0x3e, 0x08, 0x85, 0x4c, 0xbe,
  0x24, 0xcc, 0x12, 0x3e, 0x78, 0x35, 0x61, 0xbe, 0xc8, 0xfa, 0x3d, 0xbf,
  0x78, 0xba, 0x90, 0xbf, 0xb0, 0xdc, 0x6f, 0xbd, 0xd0, 0x77, 0x1a, 0x3e,
  0x13, 0xc7, 0xae, 0xbe, 0x64, 0x6c, 0x15, 0x3e, 0x00, 0x53, 0x62, 0x3c,
  0xce, 0x48, 0x7b, 0x3d, 0xf5, 0x9a, 0x75, 0xbf, 0xdc, 0x05, 0x70, 0x3e,
  0x0c, 0xfc, 0x22, 0xbf, 0x2c, 0x0f, 0x6e, 0xbe, 0x80, 0x68, 0xa2, 0x3d,
  0xe9, 0x1a, 0xd4, 0xbe, 0x00, 0x8d, 0x1a, 0xbe, 0x86, 0x6e, 0x7b, 0x3f,
  0xa8, 0x01, 0x04, 0xbe, 0x1d, 0x4a, 0x1a, 0x3e, 0x78, 0x2b, 0x03, 0xbf,
  0xc0, 0xd4, 0xb8, 0x3c, 0x24, 0x72, 0x0f, 0xbe, 0x0c, 0x89, 0x4e, 0xbe,
  0x00, 0xfd, 0xa2, 0x3b, 0xd4, 0xc8, 0x7b, 0xbe, 0xe0, 0x5f, 0xb1, 0xbd,
  0x70, 0x0f, 0x09, 0xbd, 0x40, 0x42, 0xf1, 0xbd, 0x60, 0xe6, 0x01, 0xbd,
  0xac, 0x02, 0x0a, 0x3e, 0x40, 0x9c, 0x57, 0x3e, 0x20, 0xbc, 0xa5, 0x3d,
  0xd0, 0xf4, 0x40, 0x3d, 0x34, 0xca, 0x5f, 0x3e, 0xd8, 0xeb, 0x9c, 0xbd,
  0xd0, 0xaa, 0x50, 0xbd, 0xf0, 0xc1, 0x7c, 0xbe, 0x40, 0x7e, 0x9d, 0x3d,
  0x30, 0x2c, 0xcd, 0xbd, 0x40, 0x00, 0x43, 0x3c, 0x48, 0x83, 0x72, 0xbe,
  0xb8, 0xc8, 0x1f, 0x3e, 0xa0, 0xb9, 0x07, 0x3e, 0x60, 0x16, 0x19, 0x3d,
  0x9c, 0x1d, 0x5b, 0xbe, 0x84, 0x63, 0x33, 0xbe, 0xcc, 0xfc, 0x59, 0xbe,
  0x20, 0x89, 0x42, 0xbe, 0x80, 0xe8, 0x05, 0x3d, 0xa4, 0x6d, 0x37, 0xbe,
  0x38, 0xed, 0xe8, 0x3d, 0x04, 0xc4, 0x00, 0xbe, 0xb0, 0x03, 0x43, 0xbe,
  0x90, 0xa1, 0xe9, 0x3d, 0xf7, 0x36, 0xf3, 0x3e, 0xe4, 0x8c, 0xf0, 0x3e,
  0x64, 0x6c, 0xc7, 0xbe, 0x18, 0xad, 0x76, 0x3e, 0x17, 0x87, 0x63, 0x3e,
  0xc8, 0xca, 0xdb, 0x3e, 0xec, 0xef, 0x0b, 0xbe, 0x1d, 0x1f, 0x10, 0xbe,
  0x41, 0xbd, 0x00, 0xbe, 0xb0, 0xd0, 0xd7, 0x3d, 0x28, 0x31, 0xaf, 0x3d,
  0x78, 0x4a, 0xb4, 0x3e, 0x4d, 0x1e, 0x43, 0xbf, 0x60, 0xa9, 0xee, 0xbd,
  0x90, 0x98, 0x76, 0x3d, 0x79, 0x99, 0xf0, 0x3e, 0x00, 0x2e, 0xf7, 0xbb,
  0xc0, 0x2a, 0xde, 0x3c, 0xaa, 0x85, 0xd1, 0x3e, 0xa7, 0x65, 0x67, 0xbe,
  0x50, 0xa2, 0x40, 0x3e, 0xdb, 0x30, 0x80, 0x3d, 0xc2, 0xc9, 0x10, 0xbe,
  0x60, 0x50, 0x52, 0x3e, 0x36, 0x3a, 0xbc, 0xbe, 0x40, 0xc0, 0x81, 0x3c,
  0x56, 0xf5, 0xcd, 0xbd, 0xd8, 0x74, 0x49, 0x3e, 0xf5, 0x7f, 0x5e, 0xbe,
  0xcd, 0xf7, 0x24, 0xbe, 0xd0, 0x5e, 0x40, 0x3e, 0xb0, 0x7d, 0x45, 0xbd,
  0x1f, 0x8f, 0x8d, 0x3d, 0xbc, 0x68, 0x85, 0xbe, 0x15, 0x23, 0x37, 0xbe,
  0x10, 0xea, 0x4f, 0xbd, 0x17, 0x09, 0x0c, 0x3e, 0x34, 0x5f, 0xc6, 0xbe,
  0xdc, 0xb8, 0x5b, 0xbe, 0xf6, 0x48, 0xe5, 0x3c, 0x55, 0x29, 0x38, 0x3e,
  0x98, 0x1a, 0x83, 0xbd, 0xb8, 0x79, 0x2d, 0xbe, 0x66, 0xc3, 0x1f, 0x3f,
  0x20, 0xf9, 0xa7, 0x3f, 0xd4, 0xb2, 0x1f, 0xbe, 0xa0, 0x80, 0x0f, 0x3e,
  0xc3, 0x18, 0x2c, 0x3f, 0xb8, 0xc8, 0xf1, 0xbd, 0xf0, 0x82, 0x0e, 0x3e,
  0xe8, 0x1a, 0x64, 0x3f, 0x95, 0x95, 0xa1, 0x3f, 0xa0, 0xec, 0x26, 0xbd,
  0xae, 0xf6, 0x75, 0x3e, 0x9f, 0x8a, 0x0d, 0x3e, 0x40, 0x7e, 0x75, 0x3e,
  0x7d, 0xda, 0x01, 0x3f, 0x8c, 0x2a, 0x04, 0x3e, 0xdd, 0x4a, 0xbc, 0x3e,
  0xd0, 0xdf, 0x14, 0xbe, 0xd5, 0xd7, 0x45, 0xbe, 0xfc, 0xfb, 0xd4, 0xbc,
  0x0c, 0x8d, 0x3b, 0x3e, 0x98, 0x62, 0xf3, 0xbd, 0xfc, 0xdd, 0x94, 0xbe,
  0xbb, 0xfd, 0x5a, 0xbe, 0x0d, 0x7b, 0x9d, 0x3f, 0x30, 0x23, 0xd4, 0x3d,
  0xd7, 0x65, 0xfc, 0x3e, 0xda, 0x5e, 0xbb, 0xbe, 0x1c, 0xf2, 0x3c, 0xbe,
  0xbe, 0x67, 0xcc, 0x3d, 0xfb, 0xed, 0x1d, 0x3f, 0xe8, 0x78, 0x0b, 0xbe,
  0x60, 0xe8, 0x2f, 0x3d, 0x26, 0x13, 0x1f, 0x3f, 0x5d, 0xbf, 0xf6, 0xbd,
  0x48, 0x3b, 0x41, 0xbe, 0xbc, 0x4d, 0x62, 0x3e, 0x4e, 0x99, 0x48, 0xbe,
  0xb0, 0x05, 0x3a, 0x3e, 0x80, 0xbc, 0xd1, 0xbc, 0xfe, 0xcd, 0x35, 0xbf,
  0x9d, 0x9d, 0x1f, 0xbe, 0x58, 0x74, 0xe7, 0xbd, 0xa5, 0xa4, 0xbc, 0x3f,
  0x12, 0xc6, 0x2f, 0x3e, 0x00, 0x6c, 0x8c, 0x3c, 0x19, 0x27, 0x48, 0x3f,
  0x2c, 0x6c, 0x43, 0xbe, 0x16, 0x1a, 0x2a, 0xbf, 0x88, 0x57, 0x30, 0x3e,
  0x23, 0x93, 0x29, 0xbe, 0x11, 0xc8, 0xf0, 0x3f, 0x08, 0x59, 0xfa, 0xbd,
  0x30, 0x7f, 0xbf, 0xbd, 0x20, 0x1b, 0x3b, 0x3e, 0x69, 0xd9, 0x78, 0x3e,
  0xd0, 0xe7, 0xd8, 0x3e, 0x50, 0x8b, 0x45, 0xbd, 0x14, 0x73, 0x12, 0x3e,
  0x9b, 0xee, 0x3c, 0xbe, 0xd0, 0xab, 0xed, 0x3d, 0x01, 0x94, 0x1d, 0x3e,
  0xbf, 0x5b, 0x31, 0xbd, 0x90, 0xca, 0x84, 0x3d, 0x38, 0xc3, 0xa3, 0x3d,
  0x6f, 0x1b, 0x82, 0xbc, 0xbc, 0x62, 0x8c, 0xbf, 0x00, 0xbe, 0x87, 0x3c,
  0x58, 0x88, 0x15, 0xbe, 0x9d, 0x9a, 0xd2, 0xbe, 0x7c, 0x33, 0x55, 0xbe,
  0xb8, 0x53, 0x7d, 0xbe, 0x4e, 0x9e, 0x34, 0xbf, 0x5c, 0x52, 0x41, 0xbf,
  0x24, 0x3a, 0x40, 0x3e, 0x9a, 0x4b, 0xa3, 0x3e, 0x45, 0x03, 0x3e, 0xbe,
  0x10, 0x5f, 0x2f, 0xbe, 0x39, 0xdb, 0x13, 0x3b, 0xa0, 0x29, 0x0a, 0xbd,
  0xf8, 0x3a, 0x99, 0xbf, 0x14, 0x87, 0x62, 0x3e, 0x35, 0x4f, 0x0b, 0x3e,
  0x56, 0x4b, 0xbf, 0x3d, 0x7c, 0xa3, 0x09, 0x3e, 0x68, 0x7f, 0x8c, 0x3d,
  0x7c, 0x7d, 0x9c, 0xbc, 0xf5, 0x19, 0x2d, 0xbf, 0xf5, 0x8a, 0xa0, 0x3d,
  0x10, 0x93, 0xf4, 0xbd, 0x6d, 0xdc, 0x45, 0x3e, 0xc7, 0x0b, 0x14, 0xbf,
  0xd8, 0xdc, 0x33, 0x3e, 0x70, 0x47, 0x05, 0x3e, 0xe6, 0xd6, 0x9f, 0x3e,
  0xf0, 0xf6, 0x38, 0x3e, 0x18, 0x42, 0x8f, 0x3d, 0xf2, 0x15, 0x10, 0x3e,
  0xee, 0xa4, 0xc0, 0x3f, 0xfc, 0xea, 0x13, 0x3e, 0x94, 0x0b, 0x6b, 0x3e,
  0x32, 0x31, 0xc3, 0x3e, 0x08, 0xc3, 0x71, 0xbe, 0xf4, 0xc0, 0x7d, 0x3e,
  0x8f, 0xa8, 0x13, 0x3f, 0x1a, 0x01, 0x61, 0x3f, 0xb0, 0x1e, 0x0d, 0xbd,
  0xdf, 0x90, 0x63, 0x3e, 0x49, 0xb8, 0x74, 0x3e, 0xc0, 0x4b, 0x98, 0xbc,
  0x5c, 0xee, 0xb0, 0x3e, 0x18, 0xcc, 0xba, 0xbd, 0x24, 0x8c, 0x8b, 0x3f,
  0xf8, 0xdd, 0x94, 0x3d, 0xe4, 0x7a, 0x4c, 0x3e, 0xa9, 0x07, 0xe7, 0x3d,
  0xe0, 0x9f, 0x52, 0x3e, 0x00, 0x4f, 0x3d, 0x3b, 0x6f, 0x3b, 0xf5, 0xbd,
  0xbb, 0x77, 0xe7, 0x3e, 0xaa, 0x99, 0x72, 0x3f, 0xd4, 0x80, 0x16, 0xbe,
  0x32, 0xa7, 0xda, 0x3d, 0xd3, 0xc6, 0xc6, 0xbd, 0xb0, 0xf2, 0x56, 0xbe,
  0xf0, 0x47, 0xf8, 0xbe, 0x7e, 0x37, 0x3f, 0x3d, 0xf0, 0x52, 0x75, 0xbd,
  0x60, 0xcc, 0x6f, 0xbd, 0xf4, 0x7c, 0xf2, 0x3e, 0xf1, 0xcd, 0x62, 0xbf,
  0x54, 0xc5, 0x48, 0xbe, 0x60, 0x48, 0x52, 0xbd, 0x00, 0x02, 0x71, 0x3c,
  0x40, 0x0a, 0x4d, 0xbe, 0x40, 0xef, 0xd2, 0xbc, 0xdd, 0xa3, 0x92, 0xbe,
  0xc1, 0xa7, 0x31, 0x3f, 0x04, 0xb5, 0x35, 0xbe, 0x8c, 0xf4, 0xb4, 0x3e,
  0xf0, 0xcc, 0x38, 0x3e, 0x40, 0xd2, 0xae, 0xbc, 0x6e, 0xd8, 0x2f, 0x3d,
  0x70, 0x34, 0x4a, 0xbd, 0x75, 0x15, 0xa8, 0xbf, 0xc8, 0x2e, 0x9c, 0xbd,
  0xbc, 0x07, 0x75, 0xbe, 0xd5, 0xfb, 0x16, 0x3f, 0x04, 0x69, 0x4d, 0xbe,
  0x40, 0x67, 0xcf, 0x3d, 0x7c, 0xe1, 0x09, 0x3e, 0x81, 0x83, 0x3c, 0x3f,
  0x3a, 0x4b, 0x87, 0x3b, 0x50, 0x3b, 0xec, 0x3d, 0x09, 0xa7, 0x34, 0x3e,
  0x87, 0xbf, 0x6b, 0x3f, 0xe8, 0xd7, 0xbf, 0xbd, 0xfc, 0x60, 0x90, 0x3e,
  0x8c, 0xb6, 0xf8, 0x3d, 0x18, 0x25, 0xb5, 0x3d, 0x98, 0x0c, 0x7a, 0xbe,
  0x9f, 0x74, 0x21, 0xbd, 0x14, 0x73, 0xa8, 0xbf, 0xf0, 0xef, 0x90, 0x3d,
  0x60, 0xed, 0x4c, 0x3d, 0x90, 0xe5, 0x6f, 0xbd, 0xfc, 0xd1, 0x14, 0x3e,
  0xc8, 0xb6, 0xf4, 0xbd, 0x0b, 0xbb, 0xac, 0xbe, 0x18, 0x8b, 0x85, 0xbf,
  0x98, 0x25, 0xca, 0x3d, 0xf7, 0x71, 0x78, 0xbd, 0xdb, 0x93, 0x0d, 0x3e,
  0x84, 0xeb, 0x73, 0xbe, 0x35, 0x4c, 0x08, 0xbe, 0xc0, 0x5f, 0x3f, 0x3d,
  0x09, 0x87, 0x0d, 0xbe, 0x70, 0x15, 0x80, 0x3d, 0xaa, 0x47, 0x97, 0x3d,
  0xa6, 0x4a, 0x0c, 0xbf, 0xd8, 0xb9, 0x9e, 0x3d, 0x54, 0x3e, 0x0e, 0xbe,
  0xad, 0xa4, 0x7e, 0xbd, 0xc9, 0x17, 0x6a, 0xbe, 0x41, 0xd0, 0x1e, 0x3f,
  0xb4, 0xce, 0x22, 0x3e, 0xec, 0x78, 0xa6, 0xbe, 0x1b, 0xc5, 0xdd, 0xbe,
  0x88, 0xbf, 0xac, 0x3d, 0x0f, 0x71, 0x37, 0xbe, 0x04, 0x14, 0x52, 0xbc,
  0x48, 0x55, 0x61, 0xbe, 0x64, 0x5c, 0x68, 0x3e, 0x71, 0x72, 0x26, 0x3f,
  0x12, 0x7c, 0x9e, 0x3f, 0x70, 0xe6, 0x6c, 0xbd, 0xd0, 0x49, 0x47, 0xbd,
  0xd6, 0x9b, 0x42, 0x3e, 0xc8, 0x03, 0x7d, 0x3e, 0x48, 0xed, 0xda, 0x3d,
  0x1a, 0xf1, 0x85, 0x3e, 0x0b, 0x80, 0xcd, 0x3f, 0x20, 0x4b, 0x36, 0x3d,
  0x88, 0x35, 0x05, 0x3f, 0x14, 0x19, 0x52, 0x3e, 0xf4, 0xcc, 0x69, 0x3e,
  0x67, 0x0f, 0x02, 0x3f, 0x9c, 0x62, 0x2e, 0xbe, 0xb3, 0xec, 0xfa, 0xbe,
  0x7c, 0xa3, 0x02, 0xbe, 0xb8, 0x8c, 0x06, 0x3e, 0xee, 0xeb, 0x94, 0x3e,
  0x60, 0x96, 0x86, 0x3c, 0x50, 0xcd, 0x63, 0x3d, 0x5e, 0x7e, 0xf2, 0x3e,
  0x85, 0x3c, 0x35, 0x3f, 0xfb, 0xe1, 0x01, 0xbd, 0x90, 0xb6, 0x57, 0x3e,
  0xb9, 0xbb, 0xfb, 0x3e, 0xe7, 0x33, 0x31, 0x3f, 0x60, 0x72, 0x67, 0x3d,
  0x49, 0x4e, 0x05, 0x3f, 0x6e, 0x34, 0x60, 0x3e, 0xe0, 0x53, 0xae, 0xbd,
  0x90, 0x2c, 0x94, 0x3d, 0x9e, 0xfa, 0xa2, 0xbe, 0xe7, 0x68, 0x72, 0xbf,
  0xd0, 0x2b, 0xe7, 0x3d, 0xf4, 0x6d, 0x22, 0x3e, 0x83, 0xbe, 0x15, 0xbd,
  0xcc, 0x7c, 0x5f, 0x3e, 0x50, 0xc2, 0x14, 0x3d, 0xe4, 0x38, 0xcc, 0xbd,
  0x4f, 0xbc, 0x7b, 0xbf, 0x30, 0xee, 0xca, 0x3d, 0x81, 0x70, 0x8f, 0x3e,
  0xf3, 0xec, 0x91, 0xbc, 0x94, 0xeb, 0x22, 0xbe, 0x0b, 0xb2, 0x46, 0x3e,
  0x5c, 0x90, 0x0f, 0x3e, 0x18, 0x51, 0x83, 0x3e, 0x80, 0x9f, 0xb4, 0xbd,
  0x06, 0x60, 0x13, 0xbe, 0x2b, 0xee, 0x2d, 0xbd, 0xd8, 0x1e, 0x0c, 0xbe,
  0x00, 0xb0, 0x02, 0xba, 0x36, 0x18, 0x11, 0x3f, 0x8e, 0x49, 0x1d, 0x3f,
  0x8b, 0x75, 0xc7, 0xbe, 0xc4, 0x40, 0x48, 0x3e, 0xdc, 0x1c, 0x42, 0xbe,
  0xcd, 0xe7, 0x8d, 0x3f, 0xc8, 0x94, 0x80, 0xbd, 0x69, 0x1a, 0x8e, 0xbc,
  0x4f, 0x4e, 0xf6, 0xbd, 0x9c, 0xda, 0x27, 0xbe, 0xe0, 0x1e, 0xe1, 0xbc,
  0xf4, 0x9a, 0x90, 0xbd, 0xd8, 0x7a, 0xae, 0x3e, 0x18, 0x78, 0x69, 0x3e,
  0x80, 0x1e, 0x12, 0x3e, 0x31, 0xa8, 0x3f, 0x3f, 0x84, 0xfd, 0x2f, 0xbe,
  0x84, 0xd2, 0x4d, 0x3e, 0xcc, 0xd5, 0x4b, 0x3f, 0x2d, 0xd3, 0x53, 0x3f,
  0x9c, 0xc9, 0x3a, 0xbe, 0xa3, 0xe7, 0xe5, 0xbe, 0x63, 0x1f, 0x22, 0x3e,
  0x5c, 0xba, 0x47, 0xbe, 0x01, 0x42, 0x04, 0xbf, 0x88, 0x1e, 0xb9, 0xbd,
  0x13, 0xc7, 0xa5, 0x3f, 0xd0, 0xa3, 0x36, 0x3d, 0xe9, 0x05, 0x92, 0xbd,
  0x83, 0xc2, 0x6f, 0xbf, 0x50, 0x72, 0x1b, 0xbd, 0x40, 0x74, 0x4d, 0xbc,
  0x20, 0x42, 0x51, 0xbe, 0x18, 0x13, 0xfd, 0x3d, 0x53, 0x1d, 0x12, 0x3e,
  0x00, 0x78, 0x3b, 0x3e, 0x6b, 0x7b, 0xf0, 0x3e, 0xf1, 0x0e, 0x22, 0x3c,
  0xc0, 0x53, 0x22, 0xbe, 0x65, 0x4e, 0x9d, 0x3e, 0x81, 0xae, 0xa9, 0x3e,
  0x08, 0xac, 0xa3, 0x3d, 0xf0, 0xa4, 0x20, 0x3d, 0x9f, 0x8b, 0x41, 0xbf,
  0x78, 0xc4, 0x3a, 0xbf, 0x88, 0xc2, 0x24, 0xbe, 0x84, 0x47, 0x73, 0xbe,
  0xff, 0x98, 0x41, 0xbf, 0xf8, 0x48, 0x34, 0x3e, 0xac, 0x4f, 0x1b, 0xbe,
  0x23, 0xfb, 0x0e, 0xbf, 0xd5, 0xc3, 0xff, 0xbf, 0x10, 0xc3, 0x6b, 0x3d,
  0x6e, 0x58, 0xdb, 0x3d, 0x5c, 0xf5, 0xf0, 0xbd, 0x40, 0xe9, 0x4b, 0xbd,
  0xaa, 0xae, 0x10, 0x3e, 0x70, 0x7e, 0xfa, 0xbd, 0xef, 0x13, 0xcc, 0x3e,
  0x80, 0xb4, 0xb2, 0x3d, 0x8a, 0xd3, 0x74, 0x3e, 0x9c, 0x1c, 0xca, 0x3d,
  0x38, 0x42, 0x15, 0xbe, 0x24, 0xab, 0x4f, 0xbe, 0xd4, 0x16, 0xa9, 0xbd,
  0x3c, 0x56, 0xe7, 0xbb, 0xb6, 0x1f, 0x99, 0x3f, 0xd8, 0x51, 0xa1, 0x3d,
  0x79, 0x72, 0x96, 0x3c, 0x12, 0x5e, 0x29, 0xbf, 0x0c, 0xbf, 0x48, 0x3e,
  0xd4, 0x5c, 0x4d, 0x3e, 0xc8, 0x33, 0x98, 0x3e, 0xb8, 0xe3, 0x72, 0x3e,
  0xa0, 0xef, 0x17, 0x3d, 0xcf, 0x5f, 0x2b, 0x3f, 0xcc, 0x70, 0x98, 0xbe,
  0x20, 0xe6, 0xde, 0x3c, 0x08, 0x52, 0xac, 0x3d, 0x45, 0x4a, 0x11, 0xbf,
  0xf0, 0x76, 0x97, 0x3d, 0xb8, 0x83, 0x1a, 0x3e, 0xd1, 0x2b, 0x7a, 0xbf,
  0x67, 0xc9, 0x63, 0x36, 0x94, 0xca, 0x33, 0xbe, 0xa1, 0x4c, 0x84, 0x3f,
  0xfb, 0x69, 0x12, 0x3e, 0x98, 0x32, 0xe3, 0x3d, 0xd2, 0x9a, 0x2c, 0x3f,
  0xc0, 0x03, 0x6a, 0x3c, 0xac, 0x64, 0x62, 0xbf, 0xc0, 0xb7, 0x43, 0xbd,
  0xab, 0xeb, 0x65, 0xbe, 0xcf, 0xc7, 0x8e, 0x3f, 0x90, 0x21, 0x58, 0x3d,
  0x80, 0xce, 0xe2, 0xbc, 0xbb, 0xc7, 0x9e, 0x3e, 0x68, 0x5e, 0xf7, 0x3e,
  0x95, 0x04, 0xc9, 0x3d, 0x6c, 0x85, 0x69, 0xbe, 0x48, 0xea, 0xe1, 0x3e,
  0x30, 0x25, 0x34, 0x3f, 0xf8, 0xec, 0x46, 0x3e, 0x94, 0xcc, 0xa1, 0x3e,
  0xad, 0xf8, 0x3d, 0xbf, 0xcc, 0xcf, 0x09, 0x3e, 0xf0, 0x83, 0x5d, 0x3e,
  0x60, 0x8d, 0x65, 0xbf, 0x1e, 0xf4, 0xd6, 0xbe, 0x00, 0xcc, 0x0f, 0x3e,
  0xc0, 0x8f, 0xf3, 0x3d, 0x3f, 0x39, 0x56, 0xbf, 0x68, 0xad, 0x97, 0x3d,
  0xe8, 0x82, 0x72, 0xbe, 0xa9, 0xaa, 0xf1, 0xbe, 0x75, 0x0e, 0x15, 0x3d,
  0x00, 0x98, 0x67, 0x3c, 0x2e, 0xdc, 0x50, 0xbf, 0x70, 0xe2, 0xc4, 0xbd,
  0x1c, 0xbd, 0x50, 0xbe, 0xde, 0x41, 0x8d, 0xbe, 0xf0, 0x83, 0x90, 0x3d,
  0x5c, 0x07, 0xf8, 0x3e, 0x48, 0x59, 0x10, 0xbe, 0x20, 0x78, 0xc9, 0xbc,
  0x7a, 0x4c, 0x7f, 0xbf, 0x90, 0x97, 0x15, 0xbe, 0xe0, 0xd6, 0x42, 0x3d,
  0x48, 0xb7, 0xe3, 0xbd, 0x90, 0x37, 0xa2, 0x3d, 0x00, 0xb3, 0x25, 0xbb,
  0x10, 0x63, 0x25, 0xbe, 0x90, 0xae, 0xf5, 0xbd, 0xa8, 0xbb, 0xc6, 0x3d,
  0xa0, 0xbb, 0x66, 0x3d, 0x30, 0x79, 0x73, 0xbe, 0xa0, 0xc8, 0x37, 0xbd,
  0x48, 0xf9, 0x4a, 0x3e, 0x3c, 0xca, 0x51, 0xbe, 0x3c, 0x7c, 0x65, 0x3e,
  0x70, 0xc2, 0x71, 0xbd, 0xd4, 0x28, 0x7c, 0x3e, 0xbc, 0xd9, 0x7a, 0x3e,
  0x00, 0xa4, 0x95, 0xbc, 0xb0, 0xbe, 0x79, 0xbe, 0x80, 0x27, 0x3c, 0xbc,
  0x90, 0xdc, 0x18, 0x3e, 0xf0, 0xb9, 0x86, 0xbd, 0xa0, 0x44, 0xdb, 0xbc,
  0x78, 0xb5, 0xb7, 0xbd, 0xd8, 0xcc, 0xb6, 0x3d, 0x70, 0x2c, 0xb9, 0xbd,
  0x00, 0x46, 0xc1, 0xba, 0x70, 0x92, 0xed, 0x3d, 0xec, 0x1e, 0x71, 0xbe,
  0xc8, 0x28, 0x43, 0x3e, 0xf8, 0x53, 0xf9, 0xbd, 0x30, 0xb7, 0x4e, 0x3d,
  0x80, 0xe8, 0x99, 0x3b, 0xa0, 0x73, 0x50, 0xbd, 0x01, 0x46, 0x90, 0x3e,
  0x3c, 0x2d, 0x8e, 0x3e, 0x6b, 0x1d, 0x13, 0xbf, 0xf0, 0x29, 0xda, 0x3d,
  0xa5, 0x6f, 0xad, 0x3d, 0x7f, 0x22, 0x63, 0x3f, 0x70, 0x55, 0x4b, 0xbd,
  0x39, 0x16, 0x50, 0xbe, 0x8c, 0x1f, 0xa6, 0xbd, 0xb4, 0x7f, 0x2c, 0xbe,
  0x60, 0xf0, 0xef, 0x3c, 0x65, 0xc7, 0x03, 0x3d, 0x34, 0x2c, 0x86, 0x3f,
  0x78, 0x97, 0x1f, 0xbe, 0x50, 0x3a, 0x39, 0xbd, 0xd0, 0x8c, 0x41, 0x3f,
  0xb4, 0xec, 0x23, 0x3e, 0xb0, 0x72, 0x0f, 0x3d, 0x19, 0x30, 0x41, 0x3f,
  0x9c, 0xd4, 0x86, 0x3f, 0xb8, 0x9c, 0xeb, 0xbd, 0xae, 0x65, 0x11, 0xbf,
  0xa7, 0xf3, 0xfe, 0x3d, 0xe4, 0xc5, 0x2e, 0xbe, 0xdc, 0x26, 0x9d, 0xbe,
  0xd0, 0xb4, 0x30, 0xbd, 0x5a, 0x61, 0xa0, 0x3f, 0x00, 0xc0, 0x07, 0x38,
  0xd5, 0xb2, 0xf4, 0x3d, 0xa9, 0xab, 0x6a, 0xbf, 0xa0, 0xc1, 0xa0, 0x3c,
  0xcc, 0x7f, 0x17, 0x3e, 0xdf, 0xeb, 0x04, 0x3e, 0x2d, 0x15, 0x38, 0x3e,
  0x99, 0xab, 0x82, 0xbe, 0xc8, 0xae, 0xf4, 0x3d, 0x6d, 0xbe, 0x07, 0xbc,
  0x8f, 0x93, 0x8d, 0x3d, 0x7c, 0x33, 0x65, 0x3e, 0x90, 0x95, 0xe3, 0xbd,
  0x8b, 0x8b, 0xc9, 0xbd, 0xcc, 0x80, 0x69, 0xbe, 0xe0, 0x9f, 0x0b, 0xbd,
  0x72, 0x5a, 0x86, 0x3c, 0x6c, 0x54, 0x54, 0x3e, 0xa0, 0x80, 0x5a, 0x3d,
  0x0c, 0x16, 0x10, 0xbe, 0xdf, 0xc0, 0xde, 0x3c, 0x98, 0x7d, 0x22, 0x3e,
  0x80, 0x0e, 0xb5, 0xbc, 0xbd, 0x26, 0x3e, 0xbe, 0xcc, 0x2b, 0xd3, 0xbd,
  0x90, 0x40, 0x96, 0x3d, 0x0c, 0xc2, 0x3b, 0xbe, 0xd0, 0x9b, 0x4f, 0x3e,
  0x38, 0xf8, 0x5a, 0xbe, 0xee, 0xa2, 0x42, 0xbe, 0x2c, 0x04, 0x71, 0x3e,
  0x19, 0xf4, 0xf0, 0xbd, 0xc0, 0x54, 0x75, 0x3c, 0xf0, 0x74, 0x1d, 0x3e,
  0x49, 0xfd, 0xa3, 0xbd, 0x78, 0x04, 0x06, 0xbe, 0x90, 0x5c, 0x3b, 0xbe,
  0xfa, 0x15, 0xa1, 0x3e, 0x0c, 0xfa, 0xa4, 0xbe, 0x54, 0x3b, 0xde, 0xbe,
  0x8c, 0x7b, 0x02, 0xbe, 0x3a, 0x2a, 0xdf, 0xbe, 0xca, 0xb7, 0xb8, 0x3d,
  0x70, 0xc0, 0x77, 0x3e, 0xde, 0x7c, 0x27, 0xbd, 0x15, 0xa5, 0xb8, 0x3e,
  0xa4, 0x46, 0x3f, 0x3e, 0x60, 0xc1, 0x55, 0xbe, 0xd7, 0x29, 0x83, 0x3e,
  0x49, 0x4a, 0xb1, 0x3f, 0x40, 0x56, 0x09, 0x3d, 0x84, 0x5d, 0x7c, 0xbe,
  0x81, 0xb3, 0x1c, 0x3f, 0x68, 0x69, 0xf8, 0xbd, 0x80, 0x6a, 0x20, 0x3c,
  0x0b, 0xc5, 0x58, 0x3f, 0xf5, 0x41, 0xbb, 0x3f, 0xd8, 0x19, 0x51, 0x3e,
  0x34, 0x14, 0xee, 0xbe, 0x7c, 0xa8, 0x20, 0x3e, 0xe0, 0xe9, 0x71, 0xbe,
  0x08, 0x15, 0x71, 0xbd, 0x80, 0x56, 0xee, 0x3c, 0x5c, 0xb4, 0x7a, 0x3f,
  0xf0, 0x33, 0x03, 0x3d, 0x54, 0xf5, 0x7d, 0xbe, 0x68, 0xbd, 0x1e, 0xbf,
  0x30, 0xff, 0x45, 0x3d, 0xf8, 0x6f, 0x70, 0x3e, 0x63, 0x44, 0x20, 0xbe,
  0x53, 0xaf, 0xbc, 0xbe, 0xf5, 0x6c, 0x6a, 0x3e, 0x90, 0x0e, 0x0c, 0xbd,
  0x08, 0xec, 0x05, 0xbe, 0xb9, 0x4c, 0x90, 0xbe, 0x68, 0xab, 0x1a, 0xbe,
  0xc9, 0x72, 0x04, 0xbe, 0x39, 0xfc, 0x97, 0x3e, 0xc0, 0x3b, 0x6a, 0xbd,
  0x18, 0x52, 0x64, 0xbe, 0xa5, 0x18, 0xa4, 0x3e, 0xde, 0xad, 0x76, 0x3f,
  0x80, 0x53, 0x5f, 0xbe, 0x54, 0x22, 0x68, 0x3e, 0x9c, 0x80, 0xe1, 0x3e,
  0xc4, 0x1f, 0x13, 0x3e, 0x88, 0x46, 0x54, 0xbe, 0x88, 0xdb, 0x40, 0x3f,
  0x35, 0x17, 0xb3, 0x3f, 0xe0, 0xfa, 0x8d, 0xbd, 0x86, 0x56, 0x07, 0xbe,
  0xb6, 0x4b, 0x78, 0xbd, 0x80, 0x0a, 0x85, 0xbb, 0x5b, 0xe4, 0x1d, 0xbd,
  0x00, 0xe6, 0xc6, 0x3a, 0xbe, 0x39, 0x76, 0xbd, 0x88, 0x8f, 0x97, 0xbd,
  0x38, 0x19, 0xa3, 0xbd, 0x98, 0x35, 0xbb, 0xbd, 0xd0, 0x21, 0x94, 0x3d,
  0x5c, 0xa0, 0x79, 0x3e, 0xc0, 0x05, 0x23, 0xbe, 0x30, 0x5e, 0x34, 0x3d,
  0xf0, 0xdf, 0x51, 0x3e, 0x18, 0x5f, 0x3c, 0x3e, 0xbc, 0x72, 0x75, 0xbe,
  0x4c, 0xce, 0x00, 0x3e, 0x58, 0x3c, 0x10, 0x3e, 0x4c, 0x58, 0x1a, 0xbe,
  0x80, 0x36, 0xdc, 0xbd, 0x04, 0xbf, 0x12, 0xbe, 0x20, 0xc9, 0xd6, 0xbc,
  0x20, 0xe2, 0xd0, 0xbd, 0x68, 0xab, 0x1f, 0x3e, 0x94, 0x5f, 0x0c, 0xbe,
  0x10, 0xcb, 0x99, 0x3d, 0xcc, 0x3e, 0x12, 0xbe, 0x48, 0xda, 0x6c, 0x3e,
  0xf8, 0x4d, 0x9a, 0x3d, 0x90, 0xf5, 0x9f, 0x3d, 0xec, 0x94, 0x04, 0xbe,
  0x58, 0xf2, 0x8f, 0xbd, 0x00, 0x44, 0xe0, 0x3b, 0x58, 0x7c, 0x96, 0x3d,
  0x74, 0x39, 0x67, 0x3e, 0x40, 0x73, 0xa9, 0xbd, 0x00, 0x9b, 0x6c, 0xbc,
  0xa8, 0xdf, 0xbb, 0x3d, 0x10, 0x6e, 0x1b, 0xbd, 0xc8, 0xc3, 0x41, 0x3e,
  0x50, 0x99, 0x72, 0x3e, 0xe0, 0x02, 0x65, 0x3d, 0xe4, 0x6f, 0x0e, 0xbe,
  0xbe, 0x7a, 0x65, 0xbe, 0x45, 0x23, 0xc3, 0xbe, 0x2a, 0xec, 0xa6, 0xbe,
  0xc4, 0x3a, 0x0e, 0x3e, 0x4a, 0x33, 0xc7, 0x3e, 0x46, 0xb8, 0x0c, 0x3f,
  0x24, 0xe0, 0x46, 0x3e, 0xbc, 0x38, 0xcc, 0x3e, 0xae, 0x4b, 0x72, 0x3e,
  0xe0, 0x54, 0x89, 0xbc, 0x90, 0xcb, 0xea, 0xbd, 0xbc, 0x89, 0x51, 0xbf,
  0x57, 0xa2, 0x36, 0xbc, 0xf4, 0x2a, 0x52, 0xbe, 0x30, 0x7b, 0x73, 0xbe,
  0x8c, 0xb4, 0x5d, 0xbe, 0x18, 0x56, 0x6a, 0xbe, 0xd0, 0x6e, 0xf9, 0x3d,
  0x14, 0x83, 0x22, 0xbd, 0x70, 0x21, 0xe7, 0xbf, 0x00, 0x04, 0xd6, 0xbc,
  0x50, 0xce, 0x33, 0xbe, 0xe0, 0x36, 0x8c, 0xbd, 0xd8, 0x4b, 0xe6, 0xbd,
  0xc6, 0xca, 0x98, 0x3d, 0x00, 0x54, 0x8f, 0x3c, 0x5f, 0xb8, 0x0b, 0x3f,
  0x7c, 0x02, 0x2d, 0x3e, 0x77, 0x63, 0x6a, 0xbc, 0x43, 0x4d, 0x4b, 0x3d,
  0x04, 0x8f, 0x48, 0xbe, 0xdc, 0x9f, 0x7e, 0xbe, 0x58, 0x34, 0x85, 0x3e,
  0x1c, 0xad, 0xa7, 0xbe, 0x73, 0x15, 0x17, 0x3f, 0xb8, 0x47, 0xff, 0x3d,
  0x33, 0x56, 0xe5, 0xbd, 0x7f, 0x4b, 0x72, 0xbf, 0x28, 0x3b, 0x67, 0xbe,
  0xff, 0x22, 0xe9, 0xbe, 0xca, 0x57, 0x56, 0x3e, 0x60, 0x0f, 0x96, 0xbc,
  0x00, 0x68, 0x0c, 0x3e, 0xc7, 0x40, 0xd7, 0x3f, 0xfe, 0xed, 0xcd, 0x3e,
  0xa8, 0x9b, 0xed, 0xbd, 0x3c, 0xc6, 0x19, 0xbe, 0x5a, 0x96, 0x35, 0x3f,
  0x20, 0x41, 0xdb, 0xbd, 0x8c, 0xe8, 0x4e, 0x3e, 0x51, 0xf1, 0xb2, 0x3e,
  0xd6, 0x87, 0xe6, 0x3f, 0xcc, 0x34, 0x08, 0x3e, 0x96, 0x56, 0x34, 0x3f,
  0xd9, 0xa9, 0xc9, 0x3b, 0x00, 0x11, 0x87, 0x3b, 0xe3, 0x38, 0xe2, 0x3e,
  0x00, 0xf6, 0x05, 0x3e, 0xa9, 0xb9, 0xdf, 0xbf, 0x60, 0x24, 0xd9, 0xbc,
  0xa7, 0x1c, 0xfe, 0x3d, 0xd9, 0xe4, 0x94, 0x3f, 0xc0, 0xd7, 0xbe, 0x3c,
  0xc0, 0xdd, 0x66, 0xbd, 0xc4, 0xa6, 0x29, 0x3e, 0xeb, 0x0e, 0x07, 0x3f,
  0xa2, 0x82, 0x49, 0x3e, 0xfc, 0xcb, 0x13, 0xbe, 0x1a, 0x3e, 0xbd, 0x3d,
  0xd1, 0x25, 0x39, 0x3f, 0xa8, 0x49, 0x1b, 0x3e, 0x37, 0x03, 0xae, 0x3e,
  0xa0, 0x2d, 0x59, 0xbf, 0xd8, 0xd2, 0xfc, 0x3d, 0x84, 0x9c, 0x76, 0xbe,
  0x70, 0xd9, 0x81, 0xbe, 0x49, 0x74, 0xdf, 0xbe, 0x08, 0xf0, 0x98, 0xbd,
  0xe8, 0xa7, 0xe3, 0x3d, 0xe8, 0x83, 0x1b, 0x3e, 0x88, 0x88, 0x9d, 0x3d,
  0x78, 0xdc, 0xc3, 0x3d, 0x95, 0x10, 0x12, 0x3e, 0x21, 0xb2, 0x6c, 0xbd,
  0xc8, 0xe9, 0x49, 0xbe, 0xdc, 0x2a, 0x76, 0xbe, 0x90, 0x42, 0x61, 0x3e,
  0xac, 0x0b, 0x0f, 0x3e, 0xf6, 0xa3, 0xa4, 0xbe, 0xc8, 0x8e, 0x41, 0x3e,
  0xff, 0xa7, 0xf8, 0x3e, 0xb0, 0xdc, 0x5a, 0x3d, 0x68, 0x22, 0x52, 0xbe,
  0x5d, 0x94, 0xed, 0xbe, 0x04, 0x5a, 0x17, 0xbe, 0x90, 0xc4, 0x03, 0xbe,
  0xa1, 0x13, 0x23, 0x3e, 0x36, 0xce, 0x33, 0x3f, 0xf0, 0xfa, 0xc8, 0xbd,
  0x00, 0x41, 0xba, 0xbc, 0x96, 0x0e, 0xad, 0x3e, 0xf1, 0x6a, 0x4e, 0x3f,
  0x00, 0x6d, 0xf4, 0xbb, 0x57, 0x72, 0xbd, 0x3d, 0x73, 0x32, 0xff, 0xbe,
  0x00, 0x40, 0x78, 0xbd, 0xd0, 0x3a, 0x96, 0xbd, 0x07, 0xc7, 0x23, 0xbd,
  0xc6, 0x32, 0x03, 0xbf, 0x00, 0x69, 0x0f, 0xbe, 0x18, 0x6e, 0x49, 0x3e,
  0x0d, 0x9c, 0xa1, 0xbd, 0xe8, 0x86, 0xf1, 0x3d, 0xb0, 0x4a, 0x9c, 0x3d,
  0x53, 0x70, 0xa5, 0x3c, 0x33, 0x02, 0x2e, 0x3d, 0xa0, 0x39, 0x99, 0x3c,
  0xd7, 0x41, 0x14, 0xbf, 0x80, 0x62, 0xd7, 0xbb, 0x88, 0xe6, 0x10, 0xbe,
  0x7e, 0x57, 0x0e, 0xbf, 0x60, 0x3e, 0xed, 0x3c, 0x84, 0xad, 0xfb, 0x3d,
  0xfc, 0xad, 0x4e, 0xbe, 0x6f, 0xef, 0x2d, 0x3e, 0x78, 0xe6, 0x58, 0xbf,
  0xd0, 0x82, 0x38, 0xbd, 0x04, 0x63, 0x40, 0xbe, 0x4a, 0x48, 0x3d, 0x3e,
  0x56, 0x1f, 0xdf, 0x3d, 0x16, 0x64, 0x4b, 0x3f, 0xdc, 0x73, 0x67, 0x3e,
  0x94, 0x38, 0x79, 0xbe, 0xd9, 0xaf, 0x97, 0xbe, 0x20, 0xc2, 0x81, 0x3d,
  0x05, 0xa8, 0x54, 0xbe, 0x58, 0x4e, 0xd2, 0x3d, 0xa0, 0x4a, 0xb7, 0x3d,
  0x60, 0x80, 0x5a, 0x3e, 0xe0, 0x08, 0x65, 0x3f, 0x33, 0x0b, 0xe7, 0xbd,
  0x40, 0x66, 0x20, 0xbe, 0xe0, 0xb9, 0x24, 0x3e, 0xa3, 0xe5, 0xfe, 0xbd,
  0x80, 0x41, 0xfe, 0xbd, 0xd0, 0xda, 0xb2, 0xbd, 0x1f, 0x70, 0x32, 0xbf,
  0xec, 0x4a, 0x3c, 0x3f, 0x00, 0x44, 0xf6, 0x3d, 0xf4, 0xf6, 0x39, 0x3f,
  0x62, 0x68, 0x84, 0x3d, 0x40, 0xd5, 0xd6, 0xbd, 0x0e, 0x1a, 0xb6, 0x3e,
  0xc4, 0x81, 0x02, 0xbe, 0x94, 0xe0, 0xd7, 0xbf, 0x80, 0x67, 0x98, 0x3c,
  0x8f, 0x11, 0x61, 0xbe, 0x6f, 0xd7, 0x96, 0x3f, 0x6c, 0xb0, 0x0c, 0x3e,
  0x28, 0x4f, 0x7f, 0xbe, 0xa0, 0x35, 0x32, 0xbd, 0xb0, 0xb8, 0xed, 0xbd,
  0x80, 0x6f, 0x2e, 0xbe, 0x8c, 0x96, 0x20, 0x3e, 0xe4, 0x6a, 0x7e, 0xbe,
  0xe4, 0x41, 0x09, 0xbe, 0x60, 0x42, 0x56, 0xbe, 0xe8, 0x6a, 0xdf, 0x3d,
  0xd0, 0xd8, 0xcf, 0xbd, 0xf0, 0xef, 0x98, 0xbd, 0xd4, 0x64, 0x48, 0xbe,
  0xe8, 0x8c, 0x82, 0xbd, 0x00, 0x35, 0x11, 0x3b, 0x60, 0x07, 0x18, 0x3d,
  0x04, 0xff, 0x5e, 0x3e, 0xec, 0x4b, 0x50, 0xbe, 0x00, 0x86, 0x19, 0xbe,
  0xd0, 0xa3, 0xc6, 0xbd, 0xe8, 0xdf, 0x01, 0x3e, 0x80, 0x83, 0x83, 0x3b,
  0x40, 0x56, 0x8a, 0x3c, 0xe0, 0x54, 0x46, 0x3e, 0x04, 0x76, 0x3a, 0x3e,
  0x3c, 0x3c, 0x54, 0xbe, 0x50, 0xbc, 0x14, 0xbe, 0xfc, 0x9d, 0x26, 0xbe,
  0x50, 0xd7, 0x39, 0xbd, 0xb0, 0x4c, 0x4a, 0x3e, 0x80, 0x0f, 0x40, 0x3c,
  0x20, 0x1b, 0x31, 0xbe, 0x68, 0xca, 0xe4, 0xbd, 0x9c, 0x49, 0x39, 0xbe,
  0x62, 0x2c, 0xd2, 0xbd, 0x84, 0x4f, 0xdc, 0x3e, 0x56, 0x80, 0x0b, 0x3f,
  0x5c, 0x02, 0x1a, 0xbe, 0x0c, 0x1b, 0x5d, 0x3e, 0x3e, 0x13, 0x24, 0xbe,
  0xa8, 0x36, 0xfc, 0x3d, 0x5d, 0xca, 0x76, 0x3e, 0xa8, 0x23, 0x38, 0xbe,
  0x90, 0xb3, 0x65, 0xbe, 0x60, 0x31, 0x5f, 0x3e, 0x70, 0xca, 0xa6, 0xbe,
  0x85, 0xcb, 0x9e, 0xbf, 0x40, 0xed, 0x38, 0x3d, 0x3c, 0xd1, 0x65, 0x3e,
  0xf8, 0xa8, 0x2d, 0xbf, 0x0c, 0x7d, 0x06, 0xbe, 0x60, 0x6a, 0x33, 0x3d,
  0x6d, 0x81, 0x0b, 0xbf, 0x27, 0x23, 0xae, 0xbf, 0x54, 0x64, 0x36, 0xbe,
  0xe7, 0x7f, 0xeb, 0x3e, 0x94, 0x79, 0x3f, 0x3e, 0xb0, 0x3a, 0xb4, 0xbd,
  0xbb, 0x1d, 0x9f, 0x3e, 0xc0, 0xf2, 0x06, 0x3d, 0x2d, 0xa2, 0x81, 0xbf,
  0x00, 0x87, 0x1c, 0xbd, 0xa1, 0x19, 0xa7, 0x3d, 0x28, 0x7d, 0xbc, 0x3e,
  0x6c, 0x1e, 0x10, 0x3e, 0x8c, 0xbb, 0x19, 0xbe, 0x91, 0xf4, 0x13, 0x3e,
  0x8f, 0x6e, 0xe0, 0x3d, 0x97, 0x41, 0x78, 0xbe, 0xf0, 0xb2, 0x7d, 0xbe,
  0xad, 0xe4, 0x74, 0xbe, 0x64, 0x69, 0x3b, 0xbe, 0xd0, 0x6f, 0x09, 0x3e,
  0xbf, 0xca, 0x4d, 0x3e, 0x6f, 0x05, 0x8c, 0xbe, 0xa8, 0x86, 0x55, 0xbe,
  0x34, 0x6f, 0x0d, 0xbe, 0xa4, 0x62, 0x21, 0xbe, 0x49, 0x57, 0x3d, 0xbe,
  0x58, 0x2d, 0xc5, 0x3d, 0x20, 0xb5, 0x22, 0xbd, 0x88, 0x88, 0x00, 0xbe,
  0xc4, 0x71, 0x21, 0xbe, 0x00, 0xd6, 0x53, 0xbc, 0xa1, 0x34, 0x51, 0xbe,
  0xa9, 0x2a, 0x31, 0xbd, 0x30, 0xb3, 0xb6, 0x3d, 0xb1, 0xe7, 0x09, 0x3c,
  0x84, 0x8e, 0x2d, 0xbe, 0x00, 0x95, 0x37, 0x3c, 0x80, 0xe9, 0x4b, 0x3e,
  0x00, 0x6a, 0xb3, 0xbb, 0x71, 0xf9, 0x8b, 0xbe, 0xa4, 0xbe, 0x59, 0xbe,
  0x18, 0x1e, 0xf2, 0x3d, 0x9f, 0x23, 0x4c, 0x3e, 0x78, 0x51, 0x2b, 0xbe,
  0x40, 0x28, 0x6f, 0xbd, 0xbf, 0x08, 0x0e, 0x3f, 0xd5, 0xd6, 0x15, 0x3e,
  0x60, 0x82, 0x6c, 0xbf, 0xf4, 0x1e, 0x13, 0xbe, 0x31, 0x3f, 0x28, 0x3e,
  0xe7, 0x73, 0x74, 0x3f, 0x00, 0x9c, 0x35, 0xbd, 0x3b, 0x6b, 0xc8, 0x3d,
  0x2b, 0x36, 0xa9, 0x3e, 0x10, 0xd7, 0x64, 0xbe, 0x00, 0x08, 0xc5, 0x3c,
  0xe6, 0xe8, 0x41, 0xbf, 0x48, 0x9b, 0x22, 0x3f, 0x44, 0x72, 0x56, 0xbe,
  0x38, 0x40, 0x03, 0x3e, 0xb3, 0xc9, 0x07, 0x3f, 0x80, 0x95, 0x5b, 0xbd,
  0x20, 0x57, 0xa5, 0x3d, 0x09, 0xaa, 0x2c, 0x3f, 0xe6, 0xc8, 0xb2, 0xbe,
  0xe0, 0xc1, 0x0f, 0x3e, 0x02, 0xc4, 0x4d, 0xbf, 0x09, 0xe9, 0x59, 0x3e,
  0x08, 0xa9, 0xfb, 0x3d, 0x2f, 0xc8, 0x0c, 0x3d, 0x10, 0xfa, 0x27, 0x3e,
  0xff, 0x7b, 0xec, 0x3f, 0x60, 0x95, 0xfd, 0xbd, 0x55, 0xa1, 0xbc, 0x3d,
  0xda, 0x55, 0x6e, 0xbf, 0x64, 0x0c, 0x32, 0xbe, 0x64, 0x4c, 0x61, 0x3e,
  0x47, 0x56, 0x89, 0x3d, 0x82, 0xb6, 0x6c, 0xbe, 0x1c, 0x69, 0x8c, 0x3d,
  0x10, 0xbf, 0x15, 0x3d, 0x73, 0x97, 0x4a, 0x3e, 0x97, 0x47, 0x86, 0xbe,
  0x64, 0x2b, 0x20, 0xbe, 0x93, 0x8a, 0x98, 0x3c, 0x0c, 0x7d, 0x68, 0xbe,
  0x20, 0x17, 0x2f, 0x3e, 0x40, 0xd5, 0x34, 0xbd, 0xc5, 0x63, 0x75, 0xbe,
  0xf6, 0x98, 0x93, 0x3b, 0xa0, 0x48, 0xd9, 0xbd, 0x6c, 0x90, 0x1a, 0x3e,
  0xe4, 0x51, 0x2f, 0xbe, 0xa0, 0xfa, 0x2a, 0xbd, 0x14, 0x15, 0x3f, 0x3e,
  0xa9, 0x0c, 0x40, 0xbd, 0xa1, 0x36, 0x4a, 0x3e, 0xa0, 0x8a, 0x46, 0xbe,
  0x80, 0xb4, 0x29, 0x3e, 0x20, 0xfa, 0xa8, 0x3d, 0x94, 0x74, 0x23, 0xbe,
  0x19, 0x2e, 0x74, 0x3a, 0x30, 0x4a, 0x35, 0x3d, 0xb8, 0xb8, 0x2c, 0xbe,
  0xd0, 0x1e, 0x9b, 0xbd, 0x7d, 0xc7, 0xf2, 0xbb, 0x2a, 0x17, 0x72, 0xbe,
  0xf0, 0xd0, 0xf0, 0xbd, 0xcc, 0x91, 0x7b, 0xbe, 0xaf, 0xa1, 0x21, 0xbe,
  0x68, 0x34, 0x5d, 0x3e, 0x4f, 0x35, 0x43, 0x3f, 0x60, 0xfa, 0xff, 0x3d,
  0x20, 0x38, 0xac, 0x3e, 0xfc, 0x6f, 0x21, 0xbf, 0x74, 0x4a, 0x78, 0x3e,
  0xf2, 0x13, 0x44, 0x3e, 0x9c, 0x20, 0xf0, 0x3e, 0xcc, 0xe6, 0x34, 0xbe,
  0x88, 0xe8, 0x3b, 0xbe, 0x0d, 0xd6, 0xbf, 0x3e, 0x0f, 0x33, 0x19, 0x3e,
  0x90, 0xe0, 0xa3, 0xbd, 0x48, 0x41, 0x98, 0x3d, 0x75, 0xfd, 0x00, 0xbe,
  0xe0, 0xa4, 0xac, 0xbd, 0x18, 0xbd, 0xaf, 0xbd, 0x50, 0x7c, 0x49, 0xbf,
  0x3b, 0xd4, 0x27, 0x3e, 0xa0, 0x96, 0xd7, 0xbc, 0x98, 0x5d, 0x78, 0x3f,
  0xb4, 0xdb, 0x13, 0xbe, 0x20, 0x8d, 0x41, 0xbd, 0x0b, 0xf0, 0xbe, 0x3e,
  0xc4, 0x17, 0x46, 0x3e, 0x08, 0xc4, 0x62, 0xbf, 0x20, 0x95, 0xe0, 0x3c,
  0x8e, 0xd2, 0x7d, 0x3e, 0xaf, 0x9b, 0xa0, 0x3f, 0x80, 0x31, 0x58, 0x3e,
  0x00, 0xf1, 0xb6, 0xbc, 0xd8, 0x2c, 0x8b, 0x3e, 0x34, 0x79, 0x25, 0xbf,
  0xa1, 0x81, 0xd1, 0xbe, 0xd0, 0x0b, 0xd0, 0x3d, 0xa8, 0x8b, 0xfe, 0xbd,
  0xc8, 0x02, 0x9a, 0xbe, 0x5c, 0x07, 0x57, 0x3e, 0x17, 0x16, 0xbf, 0xbe,
  0x21, 0xe5, 0xbe, 0x3e, 0x14, 0x81, 0x27, 0xbe, 0xe8, 0xa7, 0x11, 0x3e,
  0x1f, 0x52, 0x02, 0x3f, 0x1e, 0xf6, 0x95, 0x3f, 0x58, 0xcc, 0x2a, 0x3e,
  0x70, 0x20, 0x38, 0xbd, 0x8f, 0x8d, 0x5c, 0x3f, 0x90, 0x51, 0x6a, 0xbe,
  0x00, 0x98, 0xdd, 0xb9, 0xc8, 0x77, 0x62, 0x3f, 0xa7, 0x2c, 0xa6, 0x3f,
  0x38, 0x76, 0x26, 0xbe, 0x3a, 0x93, 0x10, 0xbe, 0x5e, 0x3e, 0x42, 0x3e,
  0x40, 0xa6, 0x34, 0xbc, 0x1d, 0x70, 0x11, 0xbe, 0x70, 0x2b, 0x9d, 0x3d,
  0x6d, 0xaf, 0x8a, 0x3e, 0x24, 0xcf, 0x06, 0xbe, 0xd4, 0xbd, 0x51, 0xbe,
  0x99, 0x3a, 0xa3, 0xbe, 0x30, 0x32, 0xb8, 0xbd, 0xa0, 0x2f, 0x68, 0xbe,
  0x58, 0x6b, 0x52, 0xbe, 0xf6, 0x0b, 0xe3, 0x3e, 0x84, 0xb7, 0x14, 0x3f,
  0x18, 0x17, 0x16, 0xbe, 0x90, 0x24, 0x40, 0x3e, 0xb4, 0x15, 0x1c, 0xbf,
  0xb0, 0x1c, 0x42, 0xbe, 0xf7, 0xdc, 0xcd, 0x3c, 0xa4, 0x48, 0xf0, 0x3d,
  0xdc, 0xeb, 0x5d, 0xbe, 0xe0, 0x09, 0x6a, 0x3d, 0x3d, 0xc7, 0xeb, 0x3e,
  0x6d, 0xb5, 0x8b, 0xbf, 0x00, 0xd7, 0x91, 0xbc, 0x0c, 0xe4, 0x70, 0xbe,
  0x27, 0x57, 0xcf, 0xbe, 0x30, 0xd8, 0xf2, 0x3d, 0xe8, 0x86, 0x1a, 0xbe,
  0xbe, 0x99, 0x44, 0xbf, 0xb2, 0x0c, 0x4e, 0xbe, 0x80, 0xb7, 0xa2, 0xbc,
  0xf8, 0x1b, 0x09, 0x3f, 0x5f, 0x9c, 0x31, 0x3d, 0xcc, 0xb1, 0x5e, 0xbe,
  0x30, 0x0b, 0x22, 0xbe, 0xa8, 0xea, 0x18, 0x3e, 0xdd, 0x2c, 0xd1, 0xbf,
  0x00, 0xb0, 0xc1, 0xb9, 0x3c, 0xe8, 0xa3, 0x3c, 0x2a, 0x6b, 0x35, 0x3f,
  0x08, 0xce, 0xf4, 0x3d, 0xe0, 0x5b, 0xf8, 0xbc, 0xa8, 0xe7, 0x8e, 0x3d,
  0xff, 0x80, 0xaf, 0xbe, 0x30, 0x0e, 0x98, 0xbe, 0xd8, 0xb3, 0x0d, 0xbe,
  0xce, 0x40, 0xe3, 0x3e, 0x8d, 0x06, 0x84, 0x3e, 0xd8, 0xee, 0x1a, 0x3e,
  0x1a, 0x93, 0x35, 0x3d, 0xc4, 0x6b, 0x98, 0x3e, 0x1c, 0xad, 0x50, 0x3e,
  0x34, 0x37, 0x41, 0xbe, 0x5a, 0x73, 0x7f, 0xbf, 0xa9, 0x59, 0x82, 0x3e,
  0x4c, 0xea, 0x27, 0xbe, 0xa0, 0xe8, 0x87, 0xbd, 0x49, 0xc1, 0xca, 0xbe,
  0x20, 0x0e, 0xa8, 0xbc, 0xc4, 0x44, 0x6c, 0x3e, 0x2f, 0x25, 0x7d, 0xbe,
  0xa6, 0x1d, 0xca, 0xbf, 0x74, 0x9c, 0x0e, 0x3e, 0x8c, 0xd5, 0x31, 0xbe,
  0x8d, 0x5a, 0xce, 0x3d, 0x18, 0x27, 0x69, 0x3e, 0x4f, 0x27, 0xe8, 0x3d,
  0xb0, 0xfc, 0x67, 0x3e, 0xf6, 0xfb, 0x61, 0x3f, 0x08, 0x82, 0x12, 0xbe,
  0x7d, 0xba, 0x08, 0x3e, 0xff, 0x93, 0x15, 0xbe, 0xe4, 0xad, 0x06, 0xbe,
  0x68, 0xca, 0x78, 0x3e, 0xe8, 0x1e, 0x0a, 0xbe, 0x11, 0x07, 0xfc, 0xbd,
  0x31, 0xc2, 0x81, 0x3f, 0x00, 0x01, 0xf3, 0xbd, 0x18, 0xe0, 0x2d, 0x3e,
  0xea, 0xc5, 0x36, 0xbf, 0x00, 0xa4, 0x15, 0xbb, 0x01, 0x8a, 0xa8, 0x3e,
  0x15, 0xac, 0xdd, 0x3e, 0xe8, 0x70, 0x1b, 0xbe, 0x80, 0xb0, 0xe6, 0xbc,
  0x26, 0x2c, 0x1e, 0x3f, 0x4e, 0xda, 0x61, 0xbe, 0x4c, 0xc5, 0x19, 0x3e,
  0x98, 0x98, 0x66, 0xbe, 0xd1, 0xde, 0x5b, 0xbe, 0x88, 0xf7, 0x26, 0xbe,
  0x18, 0xdc, 0x74, 0xbe, 0x0e, 0x2f, 0x87, 0xbf, 0x3f, 0x0a, 0xd0, 0xbe,
  0x3c, 0x6d, 0x78, 0x3e, 0x90, 0x47, 0x67, 0x3f, 0xca, 0x20, 0xe8, 0x3d,
  0xf4, 0x34, 0x25, 0x3e, 0x0c, 0x4e, 0xc6, 0x3e, 0x20, 0x80, 0xdd, 0x3c,
  0xcc, 0xbf, 0x85, 0xbf, 0xd4, 0x48, 0x53, 0xbe, 0x54, 0x2e, 0xf0, 0x3d,
  0xac, 0x8e, 0xa9, 0x3f, 0x10, 0xf7, 0x2d, 0xbd, 0x84, 0xf1, 0x69, 0x3e,
  0x55, 0xb6, 0x0f, 0x3f, 0xe7, 0x0f, 0x23, 0x3f, 0xfa, 0x1b, 0x49, 0xbf,
  0x30, 0x58, 0xd1, 0xbd, 0xd5, 0xeb, 0x90, 0x3e, 0x2f, 0xd1, 0x6e, 0x3f,
  0xc0, 0x47, 0xd9, 0xbd, 0xd2, 0x93, 0x9c, 0x3e, 0x42, 0x80, 0x20, 0xbe,
  0xa0, 0xb7, 0x89, 0x3c, 0x08, 0xd3, 0x78, 0x3e, 0xef, 0x71, 0x44, 0xbf,
  0xed, 0xf4, 0x0e, 0xbe, 0x98, 0x73, 0xad, 0x3d, 0x60, 0x53, 0xb1, 0xbc,
  0xa1, 0x77, 0x8c, 0x3e, 0x90, 0x55, 0x79, 0x3e, 0x24, 0x4e, 0x66, 0x3e,
  0xd4, 0xdd, 0x53, 0x3e, 0xea, 0xab, 0x57, 0xbf, 0x80, 0x6a, 0xca, 0x3d,
  0xc4, 0x19, 0x29, 0xbf, 0xfc, 0x51, 0x0e, 0x3e, 0xc8, 0x46, 0xcc, 0xbd,
  0x3b, 0xba, 0x7b, 0xbe, 0xcc, 0xa1, 0x79, 0xbe, 0xbd, 0x6d, 0x76, 0x3f,
  0x90, 0xed, 0x63, 0x3d, 0xce, 0x07, 0x57, 0x3e, 0x8f, 0x57, 0x84, 0xbf,
  0x38, 0xec, 0x1a, 0x3e, 0xb0, 0x44, 0x05, 0xbd, 0x66, 0x3f, 0xcd, 0x3e,
  0x59, 0x85, 0x9a, 0x3e, 0x2e, 0x19, 0x15, 0xbf, 0xa0, 0x39, 0xfa, 0xbc,
  0xcf, 0x15, 0x2e, 0x3d, 0x92, 0x86, 0x5d, 0x3f, 0x18, 0xfe, 0xc9, 0xbd,
  0x1b, 0x00, 0xdf, 0xbc, 0xdf, 0x3b, 0x42, 0xbd, 0xd0, 0x65, 0xcf, 0xbd,
  0xa0, 0x08, 0x33, 0xbd, 0x71, 0x01, 0xd0, 0xbd, 0xc4, 0xc3, 0x16, 0x3f,
  0x40, 0x85, 0x02, 0x3c, 0x80, 0x57, 0xb5, 0x3c, 0x49, 0x1f, 0x17, 0x3f,
  0xa8, 0xd9, 0xe8, 0xbd, 0xf8, 0x3c, 0x9a, 0xbd, 0x72, 0x28, 0x52, 0x3f,
  0x21, 0xc4, 0x3a, 0x3f, 0x14, 0x1f, 0x2c, 0xbe, 0xeb, 0x37, 0x1b, 0xbf,
  0xe0, 0xa6, 0x27, 0xbd, 0x8c, 0xc2, 0x34, 0xbe, 0xbb, 0x86, 0x95, 0xbe,
  0xd8, 0xff, 0x79, 0xbe, 0xd6, 0x4e, 0x95, 0x3f, 0xa4, 0xda, 0x11, 0xbe,
  0x60, 0xd2, 0x3a, 0x3e, 0x27, 0xde, 0x39, 0xbf, 0xc8, 0x4c, 0xbd, 0x3d,
  0x9c, 0x9b, 0x6b, 0x3e, 0x08, 0xfe, 0x08, 0x3f, 0xec, 0x26, 0x88, 0x3d,
  0x51, 0xcb, 0x0e, 0xbf, 0xf8, 0x61, 0x73, 0xbe, 0xfd, 0x20, 0x73, 0xba,
  0x96, 0x3b, 0x78, 0x3f, 0xa4, 0xf3, 0x5e, 0x3e, 0x38, 0x63, 0xf6, 0x3d,
  0xdd, 0x0d, 0xc4, 0x3c, 0x98, 0x17, 0x67, 0x3e, 0x50, 0xfc, 0x51, 0xbd,
  0x54, 0x0a, 0xd1, 0xbe, 0x5a, 0x54, 0x3e, 0x3f, 0xe0, 0x9d, 0x48, 0xbd,
  0x80, 0x55, 0xed, 0x3d, 0x7a, 0xee, 0x38, 0x3f, 0x68, 0xbd, 0xc5, 0xbd,
  0xc0, 0x29, 0x5d, 0x3e, 0x48, 0x64, 0x60, 0x3f, 0x2b, 0x6e, 0x75, 0x3f,
  0x98, 0x2b, 0xd3, 0xbd, 0x7b, 0xb4, 0x07, 0xbf, 0x8f, 0x95, 0xb2, 0x3d,
  0x00, 0x9a, 0x6c, 0x3b, 0xd2, 0x5a, 0x38, 0xbe, 0x58, 0x3d, 0x25, 0x3e,
  0x12, 0xb6, 0xbd, 0x3f, 0x80, 0xa1, 0xd7, 0x3b, 0x81, 0x46, 0xda, 0xbd,
  0x1f, 0x02, 0x8d, 0xbf, 0xe4, 0x5a, 0x3d, 0x3e, 0x08, 0x79, 0xa1, 0xbd,
  0x1c, 0x5c, 0xfa, 0x3b, 0xed, 0xd0, 0xbd, 0x3e, 0xea, 0x91, 0xcb, 0x3d,
  0x98, 0xf0, 0x6f, 0x3e, 0x53, 0x9d, 0xb4, 0x3e, 0xaf, 0x1f, 0x04, 0x3f,
  0x20, 0xe5, 0x7d, 0xbe, 0x22, 0xe3, 0x93, 0x3e, 0x4d, 0xf3, 0xc9, 0x3e,
  0x78, 0xaf, 0x0e, 0x3e, 0x38, 0x9f, 0xa4, 0x3d, 0x93, 0xd8, 0x0b, 0xbf,
  0xc7, 0x97, 0x75, 0xbf, 0x54, 0xfe, 0x6e, 0xbe, 0x78, 0xbb, 0x0c, 0x3e,
  0x37, 0xcd, 0x2d, 0xbe, 0x50, 0x64, 0x40, 0xbd, 0x48, 0x1b, 0xec, 0xbd,
  0x7a, 0x51, 0xbe, 0xbe, 0xe8, 0x1c, 0xd2, 0xbf, 0x90, 0xf6, 0x64, 0xbd,
  0x67, 0xef, 0x37, 0xbe, 0x47, 0x6c, 0x18, 0x3e, 0xb0, 0x85, 0x10, 0x3d,
  0x73, 0x93, 0xb1, 0xbd, 0x80, 0x80, 0xc0, 0x3b, 0xda, 0x32, 0xb2, 0x3e,
  0xb8, 0x6c, 0xe4, 0xbd, 0x23, 0xe6, 0x3e, 0x3e, 0xf9, 0x50, 0x80, 0xbe,
  0x28, 0x34, 0x84, 0xbd, 0x8c, 0x53, 0x46, 0x3e, 0x91, 0x35, 0x7e, 0x3e,
  0xfc, 0xf1, 0xe9, 0xbd, 0x98, 0xd0, 0x5a, 0xbf, 0xa0, 0x9e, 0xfa, 0x3d,
  0x3e, 0x59, 0xa2, 0x3e, 0xf4, 0xef, 0x41, 0x3f, 0x5c, 0x5e, 0x50, 0x3e,
  0x63, 0xfd, 0x13, 0x3f, 0x3f, 0x95, 0x4f, 0x3e, 0x8c, 0x2f, 0x40, 0x3e,
  0xb0, 0x97, 0x36, 0xbd, 0x43, 0xd0, 0x48, 0xbf, 0x45, 0x6d, 0x69, 0x3f,
  0x78, 0x1f, 0x39, 0xbe, 0xe0, 0xa8, 0x25, 0x3e, 0xa6, 0x8e, 0x92, 0x3d,
  0xb8, 0xe5, 0xdb, 0xbd, 0xc0, 0x7f, 0x7c, 0x3c, 0xaf, 0x2c, 0x37, 0x3f,
  0x63, 0xc1, 0x15, 0xbf, 0x64, 0x48, 0x00, 0xbe, 0xad, 0x16, 0xd3, 0xbe,
  0xca, 0xae, 0xd4, 0xbc, 0x20, 0xcc, 0x7d, 0x3d, 0x7f, 0x8f, 0x51, 0x3e,
  0x6c, 0x39, 0x78, 0x3e, 0x86, 0xd8, 0xc0, 0x3f, 0xac, 0xb2, 0x03, 0xbe,
  0xf0, 0x0e, 0xf5, 0x3d, 0x6b, 0x13, 0x46, 0xbf, 0x2c, 0x93, 0x4f, 0x3e,
  0x84, 0xd7, 0x52, 0x3e, 0x5b, 0x19, 0x2f, 0xbe, 0x40, 0x4f, 0x74, 0x3e,
  0xcc, 0xf7, 0x94, 0x3d, 0xbc, 0x75, 0x4f, 0xbe, 0x06, 0x4f, 0xb8, 0x3e,
  0x6b, 0x69, 0x28, 0x3f, 0x50, 0xbf, 0xca, 0x3d, 0x7d, 0xcb, 0x2e, 0x3f,
  0xdd, 0x18, 0xc0, 0xbe, 0x98, 0xa6, 0x23, 0x3e, 0xe0, 0x09, 0x27, 0xbd,
  0x0f, 0x65, 0x8a, 0xbf, 0xad, 0x72, 0x1b, 0x3e, 0x40, 0xfd, 0x45, 0xbc,
  0x8c, 0xfa, 0x0b, 0x3e, 0xd1, 0x2d, 0xae, 0xbf, 0xcc, 0x07, 0x12, 0xbe,
  0x90, 0xdd, 0xba, 0x3d, 0xda, 0x32, 0x73, 0xbf, 0x85, 0x4c, 0x13, 0xbf,
  0x50, 0x0b, 0x5a, 0x3d, 0x4f, 0xec, 0xad, 0xbe, 0xb0, 0xb1, 0x60, 0xbd,
  0xa0, 0x52, 0xff, 0x3d, 0x8c, 0x4b, 0x12, 0x3e, 0x60, 0x10, 0x4d, 0xbd,
  0xb3, 0x24, 0x1c, 0x3f, 0x80, 0xee, 0x01, 0x3e, 0xf0, 0x8d, 0x6c, 0x3e,
  0xe3, 0xe2, 0xd4, 0xbe, 0x40, 0x3d, 0xd8, 0xbc, 0xd0, 0x81, 0x09, 0xbd,
  0xcc, 0xe0, 0x4b, 0x3d, 0x7f, 0x44, 0x69, 0xbe, 0x26, 0xe5, 0xa7, 0xbd,
  0x5c, 0x6b, 0x42, 0xbe, 0x4f, 0xda, 0x29, 0xbe, 0xa8, 0x76, 0xfc, 0x3d,
  0x90, 0x44, 0x6c, 0x3d, 0x7d, 0xac, 0x7a, 0xbe, 0x98, 0x59, 0x17, 0x3d,
  0x00, 0x2e, 0x2e, 0xbc, 0x20, 0xdf, 0xd8, 0x3d, 0xe2, 0x15, 0xa4, 0xbd,
  0xd0, 0x91, 0x48, 0xbe, 0x40, 0x15, 0xcb, 0xbc, 0x70, 0x3d, 0x3c, 0xbe,
  0x5a, 0x1b, 0x66, 0x3c, 0x10, 0x62, 0x17, 0xbe, 0x94, 0xfa, 0x67, 0x3e,
  0x49, 0x44, 0x71, 0x3e, 0x4a, 0xc3, 0x4e, 0xbd, 0xe0, 0x87, 0xbd, 0x3d,
  0x5f, 0x19, 0x97, 0x3c, 0xe8, 0xb4, 0xa5, 0xbd, 0x10, 0xb3, 0x1b, 0xbe,
  0x56, 0x67, 0x0d, 0x3e, 0x48, 0x40, 0xf2, 0x3d, 0x28, 0x48, 0x93, 0x3d,
  0x48, 0x19, 0x23, 0xbe, 0x1c, 0x4e, 0x19, 0x3e, 0xba, 0x0f, 0x4d, 0xbe,
  0x00, 0x65, 0x8c, 0x3b, 0x08, 0x27, 0x81, 0x3d, 0xa3, 0xf2, 0x0c, 0x3f,
  0x93, 0x74, 0x8c, 0x3e, 0xe9, 0xc8, 0x42, 0xbf, 0xe0, 0x46, 0x0c, 0xbe,
  0x38, 0x77, 0x17, 0xbe, 0xf4, 0xde, 0x80, 0x3f, 0x58, 0x1c, 0x77, 0xbe,
  0xd2, 0x8f, 0x7b, 0x3e, 0xf5, 0xdf, 0x06, 0x3e, 0xe0, 0x27, 0xa7, 0x3c,
  0x50, 0xab, 0x1b, 0x3d, 0x29, 0xf2, 0x6f, 0xbd, 0xf9, 0xf0, 0xbc, 0x3e,
  0x54, 0x25, 0x28, 0xbe, 0xf0, 0xba, 0x42, 0xbd, 0x20, 0xc8, 0x6d, 0x3f,
  0x18, 0x43, 0xb7, 0x3d, 0xa0, 0x8b, 0xb1, 0xbc, 0x87, 0x1d, 0xae, 0x3f,
  0x79, 0x66, 0x00, 0x3f, 0xc0, 0x36, 0xea, 0xbc, 0xff, 0xea, 0xfa, 0xbe,
  0x89, 0x78, 0xd4, 0xbd, 0x90, 0xb0, 0x6d, 0x3e, 0x61, 0x9f, 0xc8, 0xbe,
  0x90, 0x38, 0xdc, 0xbd, 0xe8, 0x79, 0x9d, 0x3f, 0xd0, 0xcb, 0x76, 0x3d,
  0x1d, 0xd4, 0xca, 0x3d, 0x45, 0x84, 0x9f, 0xbf, 0x3c, 0xed, 0x44, 0xbe,
  0xc0, 0xb3, 0xd1, 0xbc, 0x77, 0xa5, 0x87, 0x3e, 0xc8, 0xbb, 0x2c, 0x3f,
  0x67, 0x21, 0xc8, 0xbd, 0x10, 0x17, 0x41, 0x3e, 0x08, 0x1f, 0xf4, 0x3e,
  0xfd, 0xdf, 0x50, 0x3f, 0x28, 0x4e, 0xf2, 0xbd, 0x2a, 0x0b, 0xa6, 0x3e,
  0x76, 0x94, 0x62, 0xbe, 0x08, 0x0f, 0x24, 0xbe, 0x00, 0xe2, 0x41, 0x3b,
  0xc5, 0x28, 0x46, 0xbf, 0x5e, 0x0f, 0x91, 0xbf, 0x4c, 0x6f, 0x5e, 0x3e,
  0x30, 0x93, 0x05, 0x3e, 0x7b, 0x4b, 0x2a, 0xbe, 0x10, 0xf6, 0x61, 0xbd,
  0xc0, 0x12, 0x48, 0xbc, 0x2f, 0x88, 0x90, 0x3e, 0x5e, 0x0d, 0xc8, 0xbf,
  0x20, 0x40, 0x6e, 0x3e, 0xc6, 0x38, 0x1e, 0xbe, 0xae, 0x51, 0xe8, 0xbd,
  0x64, 0x63, 0x3d, 0xbe, 0xea, 0xb9, 0xa3, 0xbe, 0xb0, 0xa9, 0xba, 0x3d,
  0xf2, 0x7d, 0x3d, 0x3f, 0x88, 0x33, 0xd4, 0x3d, 0x27, 0xd0, 0x32, 0xbe,
  0xd4, 0x17, 0x30, 0xbf, 0x48, 0x7b, 0x01, 0xbe, 0x00, 0x4b, 0x18, 0x3e,
  0xfe, 0xfa, 0xaa, 0x3e, 0x48, 0x46, 0xe7, 0x3e, 0x32, 0x72, 0x43, 0xbf,
  0xb4, 0x3e, 0x19, 0xbe, 0x65, 0x52, 0x43, 0xbd, 0xe7, 0xeb, 0x90, 0x3f,
  0xac, 0x6d, 0x3c, 0x3e, 0xcf, 0xd9, 0x20, 0x3e, 0x7e, 0x25, 0xe6, 0xbd,
  0xd4, 0xb0, 0x4d, 0xbe, 0x30, 0x0c, 0x59, 0xbe, 0xa8, 0x0d, 0xb7, 0xbb,
  0x95, 0x49, 0x0d, 0x3f, 0xac, 0x37, 0x2f, 0x3e, 0x78, 0xe0, 0x78, 0xbe,
  0x0e, 0x80, 0xf1, 0x3e, 0x48, 0x57, 0xd8, 0x3d, 0x00, 0xa2, 0xe5, 0xbb,
  0x8f, 0xbb, 0x62, 0x3f, 0x79, 0xb2, 0x5b, 0x3e, 0xf4, 0x7b, 0x31, 0x3e,
  0xf5, 0x7c, 0x26, 0xbf, 0xe0, 0xb8, 0x33, 0x3e, 0xcc, 0xd2, 0x40, 0x3e,
  0x73, 0xdf, 0x0f, 0xbe, 0x50, 0x50, 0x38, 0x3e, 0xd5, 0x0d, 0x83, 0x3f,
  0x28, 0xce, 0x5c, 0x3e, 0x38, 0x37, 0x2c, 0x3e, 0xef, 0x82, 0x71, 0xbf,
  0xc0, 0x06, 0x28, 0xbd, 0x04, 0x32, 0x58, 0xbe, 0x8c, 0x7e, 0x1e, 0xbe,
  0x5c, 0x48, 0x1f, 0xbe, 0x20, 0x6b, 0xd9, 0x3c, 0xcc, 0xe8, 0x18, 0xbe,
  0x94, 0x1f, 0x30, 0xbe, 0x10, 0x2f, 0xf5, 0xbd, 0x28, 0x92, 0xd4, 0xbd,
  0xc0, 0x6d, 0x04, 0x3c, 0x00, 0xfb, 0xca, 0xbd, 0x10, 0x9b, 0x6e, 0xbd,
  0x40, 0x15, 0x44, 0x3e, 0x40, 0x88, 0xee, 0x3d, 0x24, 0x2d, 0x5c, 0xbe,
  0xa0, 0xc2, 0xff, 0x3d, 0xd0, 0xc2, 0x8e, 0x3d, 0x50, 0x93, 0xf7, 0x3d,
  0x20, 0x4a, 0x11, 0x3e, 0x40, 0x52, 0x0e, 0xbe, 0xec, 0x4b, 0x2d, 0x3e,
  0x18, 0xcd, 0x5d, 0x3e, 0x38, 0x1c, 0xbd, 0xbd, 0xb4, 0x2c, 0x00, 0x3e,
  0xd0, 0xee, 0x38, 0xbd, 0xa0, 0x2d, 0x94, 0x3c, 0xcc, 0x44, 0x06, 0xbe,
  0x88, 0x9b, 0xff, 0xbd, 0xc0, 0xb6, 0x0c, 0xbe, 0xe8, 0xa0, 0xb8, 0xbd,
  0x24, 0x11, 0x18, 0x3e, 0xa8, 0xd2, 0x47, 0x3e, 0xb4, 0xf0, 0x5a, 0xbe,
  0x8c, 0x67, 0x11, 0x3e, 0xcb, 0x68, 0x16, 0x3e, 0xf1, 0x4a, 0x70, 0xbd,
  0x41, 0x2c, 0x31, 0xbe, 0x34, 0xa8, 0x02, 0xbe, 0x59, 0xcc, 0x4c, 0x3e,
  0xea, 0x6f, 0xfd, 0xbd, 0x60, 0xcf, 0xf0, 0xbc, 0xcb, 0xc3, 0xdf, 0x3d,
  0x85, 0x5a, 0x84, 0x3d, 0x80, 0xf1, 0x05, 0xbe, 0x8c, 0x1a, 0x67, 0x3e,
  0x67, 0xeb, 0xfb, 0xbd, 0x96, 0x33, 0x15, 0xbf, 0x28, 0x4d, 0x2c, 0x3e,
  0x78, 0x0e, 0x2e, 0xbe, 0x3a, 0x6d, 0xab, 0xbe, 0x58, 0x0a, 0x2a, 0x3e,
  0xd0, 0xc6, 0x0d, 0xbe, 0xc2, 0xd1, 0x9c, 0xbc, 0x01, 0x30, 0x1b, 0xbf,
  0x38, 0x42, 0x6b, 0xbe, 0x00, 0xf5, 0xd7, 0xbd, 0x6c, 0x4b, 0x99, 0xbd,
  0xc4, 0xd4, 0x42, 0xbe, 0xda, 0xf7, 0x24, 0x3e, 0x40, 0xfb, 0x59, 0xbc,
  0xbd, 0x29, 0xd1, 0xbe, 0x84, 0x00, 0x0c, 0x3e, 0x32, 0xe1, 0x7d, 0xbe,
  0xe7, 0xd6, 0x31, 0xbe, 0x60, 0x96, 0x43, 0xbe, 0x00, 0x8c, 0xf2, 0xba,
  0xa6, 0xf9, 0xff, 0xff, 0x04, 0x00, 0x00, 0x00, 0x00, 0x04, 0x00, 0x00,
  0x7b, 0xe9, 0x1c, 0xbf, 0x7c, 0x47, 0xa8, 0xbd, 0x8c, 0x81, 0xea, 0x3e,
  0x9b, 0x2f, 0x33, 0x3e, 0xf1, 0x8c, 0x32, 0x3e, 0x04, 0xb4, 0xbc, 0x3e,
  0x56, 0x01, 0x9a, 0x3e, 0x90, 0xf7, 0x3b, 0x3f, 0x1a, 0x78, 0xb1, 0xbd,
  0xaa, 0x1b, 0x28, 0xbe, 0x1e, 0x15, 0x0c, 0xbe, 0x50, 0x1d, 0x08, 0x3e,
  0x76, 0x14, 0x01, 0xbc, 0x86, 0x96, 0x9d, 0xbd, 0xab, 0xbc, 0x62, 0x3f,
  0xd1, 0x91, 0x5e, 0x3e, 0xb2, 0x9a, 0x83, 0x3e, 0xc3, 0x66, 0xb3, 0x3e,
  0x4b, 0x1b, 0x4f, 0xbf, 0xf4, 0xf5, 0x44, 0x3e, 0x88, 0x64, 0x73, 0x3e,
  0x17, 0xae, 0x5d, 0x3e, 0x20, 0xa6, 0x98, 0xbe, 0xa4, 0x06, 0xf7, 0xbe,
  0xf0, 0x77, 0xbc, 0xbd, 0x5a, 0x3d, 0xc4, 0xbe, 0x21, 0xbf, 0x9b, 0xbe,
  0x38, 0xdd, 0x66, 0xbe, 0xc2, 0x59, 0xb8, 0x3e, 0x76, 0x0e, 0x98, 0x3e,
  0x32, 0x2d, 0x9e, 0x3e, 0xb0, 0x64, 0x62, 0x3d, 0x5b, 0xba, 0xd7, 0x3e,
  0x26, 0xa0, 0xc9, 0x3e, 0xb3, 0xb6, 0x3d, 0x3c, 0xf0, 0x6f, 0xed, 0x3d,
  0x33, 0x3a, 0x05, 0xbf, 0xcb, 0x79, 0xc0, 0x3e, 0x49, 0x1d, 0x37, 0x3f,
  0x07, 0x4f, 0xaa, 0xbe, 0x1a, 0x15, 0xce, 0x3c, 0xbd, 0x5f, 0xd2, 0x3d,
  0x38, 0x9b, 0xac, 0x3e, 0x75, 0x3c, 0xa5, 0xbe, 0x21, 0xe7, 0xed, 0xbe,
  0xbf, 0x43, 0x83, 0xbd, 0x23, 0xc4, 0x01, 0x3f, 0xda, 0xc7, 0x26, 0x3f,
  0x70, 0x20, 0x9c, 0xbe, 0xbc, 0x11, 0x7b, 0x3e, 0x94, 0xae, 0x50, 0x3e,
  0xe1, 0x3c, 0xa4, 0xbe, 0xcc, 0xbb, 0x73, 0x3e, 0x9e, 0xff, 0x66, 0xbe,
  0x85, 0x7f, 0x72, 0xbe, 0xee, 0x12, 0x72, 0xbe, 0xf7, 0xfb, 0x8e, 0x3e,
  0x62, 0x7a, 0x6b, 0x3e, 0x1b, 0xa6, 0x97, 0x3b, 0x2d, 0xbe, 0xde, 0x3e,
  0xcb, 0x7c, 0x16, 0xbf, 0xae, 0x0a, 0x9c, 0xbe, 0xca, 0xb9, 0xfb, 0x3e,
  0x88, 0x9b, 0x95, 0x3d, 0x8f, 0x4a, 0xd9, 0x3d, 0xb2, 0x8f, 0x77, 0x3e,
  0xf7, 0xe1, 0x55, 0x3e, 0x90, 0xd0, 0xa0, 0x3e, 0x37, 0xcf, 0xd0, 0x3e,
  0xff, 0x61, 0x5a, 0x3d, 0xb5, 0xb9, 0xf0, 0xbe, 0x6c, 0x86, 0x42, 0xbf,
  0x52, 0x34, 0x02, 0xbe, 0x00, 0x55, 0x10, 0xbc, 0x70, 0x69, 0xa1, 0x3c,
  0x36, 0xb8, 0x3e, 0xbe, 0xf7, 0xd3, 0xa8, 0xbe, 0xb6, 0x53, 0x05, 0xbe,
  0x5d, 0x33, 0x7d, 0xbe, 0xac, 0x2e, 0x81, 0x3d, 0xc2, 0x85, 0xa3, 0xbe,
  0x08, 0x27, 0x98, 0xbe, 0x50, 0x1a, 0x68, 0x3e, 0x08, 0x83, 0x61, 0xbe,
  0x99, 0x8f, 0xa0, 0xbe, 0x50, 0xf7, 0xeb, 0xbc, 0xa8, 0xfd, 0xf4, 0x3d,
  0xa4, 0xfd, 0xd2, 0x3d, 0xe4, 0x5a, 0x29, 0x3e, 0xcf, 0xeb, 0x42, 0x3d,
  0x67, 0xcf, 0x1d, 0xbd, 0xf7, 0xe8, 0x31, 0xbe, 0xd9, 0xf5, 0x2c, 0x3f,
  0xae, 0xee, 0x4d, 0x3e, 0xf2, 0xc6, 0x15, 0xbf, 0x7f, 0x3d, 0xc5, 0xbe,
  0xe7, 0x67, 0x23, 0xbe, 0x3e, 0x83, 0xb0, 0x3e, 0x91, 0xb2, 0x9c, 0x3e,
  0x2f, 0xfe, 0x7b, 0x3e, 0xcc, 0x98, 0x7d, 0xbb, 0xa9, 0xc9, 0xab, 0xbe,
  0xa4, 0xb5, 0x17, 0xbf, 0xd2, 0xab, 0x55, 0x3e, 0x5f, 0xb9, 0xbb, 0xbe,
  0x9a, 0x19, 0x89, 0x3e, 0x8c, 0x01, 0xfe, 0xbd, 0x34, 0x98, 0x5f, 0xbe,
  0x60, 0x14, 0x59, 0xbe, 0xbc, 0x54, 0x41, 0x3e, 0x10, 0x73, 0x96, 0x3c,
  0x0e, 0xf1, 0xa4, 0xbe, 0xff, 0x66, 0x66, 0xbe, 0xc5, 0xc8, 0xa2, 0xbe,
  0xbd, 0xc4, 0xc4, 0xbe, 0x39, 0x24, 0x7a, 0xbe, 0xf6, 0xb5, 0x8b, 0xbe,
  0x60, 0xdd, 0x8a, 0xbe, 0x78, 0xb4, 0xa6, 0x3e, 0xe0, 0xab, 0xff, 0xbc,
  0xb5, 0x54, 0xae, 0xbe, 0xc6, 0x81, 0x29, 0x3c, 0x6a, 0x35, 0x84, 0x3e,
  0x19, 0x75, 0x94, 0x3d, 0xcf, 0xbe, 0x09, 0x3e, 0x59, 0x4a, 0xb7, 0x3e,
  0x2d, 0x30, 0xf3, 0xbe, 0xdc, 0x8a, 0x4d, 0xbe, 0xc5, 0x7e, 0x33, 0xbe,
  0x94, 0x45, 0x7f, 0x3e, 0xd0, 0xb0, 0xb2, 0xbe, 0xbd, 0x77, 0x75, 0xbe,
  0x64, 0x8b, 0x7a, 0xbe, 0xba, 0xec, 0x3c, 0xbe, 0x00, 0xd1, 0x45, 0x3e,
  0x90, 0xf4, 0xc0, 0xbd, 0xa0, 0x42, 0x82, 0xbd, 0xa4, 0xc2, 0x9c, 0x3d,
  0x80, 0x53, 0xbb, 0xbc, 0x60, 0x76, 0x09, 0xbc, 0xab, 0x34, 0x9d, 0xbe,
  0xc8, 0xa0, 0xa2, 0x3d, 0x70, 0x7b, 0xa8, 0xbd, 0x00, 0xd7, 0x83, 0x3a,
  0x86, 0x37, 0xb6, 0xbe, 0xb2, 0xc6, 0x12, 0x3e, 0x53, 0xf4, 0x4c, 0x3f,
  0xb5, 0xe9, 0xcb, 0xbd, 0x64, 0x14, 0xae, 0x3c, 0x07, 0xb6, 0xee, 0x3d,
  0x68, 0xc9, 0x09, 0xbe, 0x2c, 0xce, 0xf4, 0xbd, 0x0f, 0xff, 0xbc, 0xbe,
  0x72, 0x25, 0xb1, 0x3d, 0x3c, 0xb0, 0x9e, 0x3c, 0x13, 0xf0, 0xd2, 0x3c,
  0x21, 0xf0, 0x12, 0x3f, 0xd8, 0xff, 0x4c, 0x3e, 0x32, 0xae, 0x67, 0xbf,
  0xb5, 0x37, 0x03, 0x3f, 0xfc, 0xdb, 0x80, 0x3d, 0x7c, 0x0f, 0x1e, 0x3e,
  0xb4, 0x4f, 0xb1, 0xbd, 0xfc, 0x3f, 0x8c, 0xbe, 0x15, 0xd5, 0x54, 0xbe,
  0x4c, 0x03, 0xb6, 0xbe, 0x59, 0x1f, 0x2d, 0xbe, 0xf4, 0xc6, 0x32, 0x3e,
  0xdf, 0xe6, 0x31, 0x3d, 0x74, 0x9a, 0xdc, 0x3e, 0xcb, 0xc7, 0xed, 0xbe,
  0xb0, 0x4c, 0x01, 0x3c, 0x72, 0x4f, 0x12, 0x3f, 0xfa, 0xa9, 0x5c, 0xbd,
  0x91, 0x67, 0x5b, 0xbe, 0x07, 0xb6, 0x04, 0xbf, 0x4d, 0x70, 0x90, 0xbe,
  0x07, 0xd8, 0x1f, 0xbe, 0x9a, 0x65, 0x02, 0x3e, 0x26, 0x93, 0x33, 0xbe,
  0x2c, 0x56, 0xc7, 0x3c, 0x56, 0xde, 0xb9, 0x3d, 0x75, 0x0f, 0x84, 0x3e,
  0x15, 0x07, 0x61, 0x3e, 0x8e, 0x6f, 0x9c, 0xbe, 0xa1, 0x10, 0xa1, 0xbe,
  0xc4, 0x8d, 0x14, 0x3e, 0xce, 0xa4, 0x83, 0xbe, 0x58, 0xbb, 0xe4, 0x3d,
  0x30, 0x04, 0xb3, 0x3d, 0x40, 0xc4, 0xb5, 0xbd, 0x20, 0xb6, 0xff, 0xbc,
  0x47, 0x95, 0x8d, 0xbd, 0x6c, 0x3a, 0x1a, 0x3f, 0xc6, 0x2b, 0x81, 0xbe,
  0x28, 0x10, 0x9d, 0x3e, 0x88, 0xcb, 0x14, 0x3f, 0x0e, 0xc5, 0xa0, 0xbe,
  0xcd, 0xcd, 0xaf, 0xbe, 0x0d, 0x50, 0xc3, 0xbe, 0x2a, 0x1a, 0x71, 0xbe,
  0x60, 0xe6, 0x53, 0xbd, 0xb3, 0x5c, 0x75, 0xbe, 0x12, 0xec, 0x1e, 0xbe,
  0x10, 0x04, 0x58, 0x3e, 0xd0, 0xc3, 0x92, 0x3d, 0x78, 0x38, 0xd5, 0x3d,
  0xb1, 0xa2, 0x9c, 0xbe, 0x61, 0x25, 0x18, 0x3e, 0xb7, 0x11, 0x92, 0x3e,
  0x3e, 0x75, 0xb3, 0x3e, 0x57, 0x62, 0xd1, 0xbd, 0x18, 0x87, 0x2b, 0xbf,
  0x81, 0x44, 0x52, 0xbe, 0x45, 0xcd, 0x98, 0x3d, 0x04, 0xd1, 0x91, 0x3e,
  0x98, 0x41, 0x2a, 0xbd, 0xf8, 0x7e, 0xee, 0xbd, 0x1b, 0xbc, 0x27, 0xbe,
  0x2a, 0x91, 0x9b, 0xbe, 0x8f, 0x45, 0x58, 0xbe, 0x7e, 0x27, 0x8a, 0xbe,
  0xb0, 0xa1, 0x97, 0x3e, 0x68, 0xa4, 0x50, 0x3d, 0x23, 0xfb, 0xa7, 0xbe,
  0xca, 0xc9, 0x37, 0x3e, 0x77, 0xeb, 0x0b, 0xbe, 0x11, 0xcf, 0x27, 0x3e,
  0xd5, 0x4a, 0x9a, 0xbe, 0xe2, 0xb9, 0x80, 0x3e, 0xd6, 0x0e, 0x77, 0xbe,
  0x1b, 0xa8, 0x93, 0x3e, 0x03, 0x9e, 0xe9, 0x3e, 0x02, 0x24, 0x9d, 0x3e,
  0x20, 0x21, 0xcd, 0xbe, 0x1f, 0x3c, 0x93, 0xbe, 0x76, 0x1f, 0x1d, 0x3f,
  0x56, 0x27, 0xa3, 0xbd, 0x96, 0x80, 0xba, 0xbe, 0xf7, 0x26, 0x12, 0xbf,
  0xac, 0x89, 0x57, 0x3e, 0xd4, 0xa3, 0xc3, 0xbd, 0x98, 0xf1, 0x15, 0x3e,
  0x86, 0xc2, 0xa8, 0xbe, 0xef, 0xc3, 0x46, 0xbe, 0xec, 0x7b, 0x14, 0x3e,
  0x46, 0xc3, 0x16, 0xbe, 0xc8, 0xca, 0xe3, 0xbd, 0x50, 0xce, 0x64, 0x3d,
  0x28, 0xe9, 0x6d, 0xbe, 0x50, 0x6b, 0xcb, 0xbd, 0xc1, 0xc2, 0xb9, 0xbe,
  0x3c, 0x2a, 0x5b, 0x3e, 0xd8, 0x81, 0x73, 0x3e, 0xa4, 0xcb, 0x02, 0x3e,
  0x00, 0x22, 0x3e, 0xbb, 0xb2, 0xfd, 0xff, 0xff, 0x04, 0x00, 0x00, 0x00,
  0x80, 0x00, 0x00, 0x00, 0xd5, 0x38, 0x10, 0xbd, 0x17, 0xd5, 0x80, 0x3d,
  0xb6, 0x1e, 0x86, 0xbd, 0x00, 0x00, 0x00, 0x00, 0x2f, 0x58, 0x73, 0x3d,
  0xea, 0x69, 0xb4, 0xba, 0x00, 0x00, 0x00, 0x00, 0x86, 0x7c, 0xe7, 0x3c,
  0x7a, 0x5b, 0xb3, 0xbd, 0x00, 0x00, 0x00, 0x00, 0x00, 0x00, 0x00, 0x00,
  0x71, 0x19, 0x39, 0x3d, 0xa7, 0xca, 0x6a, 0xbd, 0x00, 0x00, 0x00, 0x00,
  0x00, 0x00, 0x00, 0x00, 0xcd, 0x8f, 0x91, 0x3c, 0x00, 0x00, 0x00, 0x00,
  0x00, 0x00, 0x00, 0x00, 0xf2, 0xc2, 0x3e, 0x3d, 0x22, 0xb5, 0xf2, 0xbc,
  0x00, 0x00, 0x00, 0x00, 0x2a, 0x68, 0xb8, 0xbc, 0xc5, 0x38, 0xce, 0xbb,
  0x00, 0x00, 0x00, 0x00, 0x31, 0x08, 0xb2, 0x3c, 0x00, 0x00, 0x00, 0x00,
  0x07, 0x93, 0xa3, 0x3c, 0x00, 0x00, 0x00, 0x00, 0x01, 0x26, 0x20, 0xbb,
  0xf8, 0x9d, 0xe9, 0xba, 0x00, 0x00, 0x00, 0x00, 0x00, 0x00, 0x00, 0x00,
  0x3e, 0xfe, 0xff, 0xff, 0x04, 0x00, 0x00, 0x00, 0x00, 0x01, 0x00, 0x00,
  0xbe, 0x9f, 0x4f, 0x3e, 0x45, 0xab, 0x45, 0xbe, 0xfd, 0x3b, 0x59, 0x3e,
  0x7c, 0x24, 0x55, 0x3e, 0x66, 0xd5, 0x64, 0x3e, 0x8d, 0x29, 0xb8, 0x3d,
  0x77, 0xc0, 0xf4, 0xbc, 0xe3, 0x65, 0x1b, 0x3a, 0x00, 0x00, 0x00, 0x00,
  0xaf, 0xa5, 0x51, 0x3e, 0xa0, 0x62, 0xae, 0x36, 0x00, 0x00, 0x00, 0x00,
  0xf8, 0xfc, 0xcb, 0x3d, 0x00, 0x00, 0x00, 0x00, 0x37, 0x83, 0xb6, 0xbd,
  0x27, 0x4c, 0x11, 0x3d, 0xbc, 0x75, 0x35, 0x3e, 0x00, 0x00, 0x00, 0x00,
  0x08, 0xde, 0x2e, 0x3e, 0xf3, 0xc1, 0x89, 0x3d, 0xb0, 0x15, 0x19, 0x3e,
  0xb6, 0x6a, 0x50, 0x3d, 0xd5, 0xeb, 0x45, 0x3d, 0x5e, 0x66, 0x00, 0xbd,
  0x5c, 0x17, 0x1f, 0x3e, 0xdd, 0xc1, 0xe3, 0x3b, 0x3a, 0xcd, 0x85, 0x3e,
  0xd1, 0xdd, 0x66, 0x3e, 0x13, 0x9c, 0x03, 0xbd, 0xd9, 0x2a, 0x5e, 0x3d,
  0x40, 0xc2, 0xca, 0x3e, 0x00, 0x00, 0x00, 0x00, 0x9e, 0x26, 0xc3, 0x3d,
  0x2d, 0xac, 0x5f, 0xbd, 0x5b, 0xf2, 0xa2, 0x3d, 0x9d, 0x16, 0xb7, 0xbc,
  0x00, 0x00, 0x00, 0x00, 0xc1, 0xa6, 0x4d, 0xbd, 0x35, 0x90, 0xa8, 0x3d,
  0x08, 0xda, 0x91, 0xbd, 0x43, 0x6a, 0x38, 0xbd, 0x50, 0xa9, 0x6e, 0x3d,
  0x00, 0x00, 0x00, 0x00, 0x2a, 0xfa, 0x09, 0x3b, 0xad, 0x8e, 0x52, 0xbd,
  0x6f, 0xbc, 0x1a, 0x3e, 0x10, 0x39, 0xc9, 0xbc, 0xc3, 0xca, 0xb8, 0x3d,
  0xcf, 0x71, 0x5e, 0x3c, 0x8a, 0x74, 0x80, 0x3c, 0xb2, 0x09, 0xb0, 0xbb,
  0x13, 0xa5, 0x85, 0xbc, 0x63, 0x52, 0x52, 0x3e, 0xc8, 0x3d, 0x47, 0x3e,
  0x9e, 0x36, 0x65, 0x3e, 0x4d, 0x2a, 0x21, 0x3e, 0x2e, 0x11, 0xf9, 0x3d,
  0x74, 0xd7, 0x3c, 0x3e, 0xf2, 0x87, 0xcc, 0xbc, 0x9d, 0x1b, 0x45, 0x3e,
  0x6f, 0x33, 0x58, 0x3e, 0xad, 0x52, 0x4a, 0x3e, 0x00, 0x00, 0x00, 0x00,
  0xb7, 0x9b, 0x2b, 0x3e, 0x4a, 0xff, 0xff, 0xff, 0x04, 0x00, 0x00, 0x00,
  0x14, 0x00, 0x00, 0x00, 0x40, 0x74, 0xc7, 0xbe, 0xd2, 0x0d, 0xb0, 0xbe,
  0xc9, 0x6b, 0xc7, 0xbe, 0x7f, 0x08, 0x85, 0xbe, 0x7b, 0x9a, 0x9a, 0xbe,
  0x40, 0xfa, 0xff, 0xff, 0x44, 0xfa, 0xff, 0xff, 0x0f, 0x00, 0x00, 0x00,
  0x4d, 0x4c, 0x49, 0x52, 0x20, 0x43, 0x6f, 0x6e, 0x76, 0x65, 0x72, 0x74,
  0x65, 0x64, 0x2e, 0x00, 0x01, 0x00, 0x00, 0x00, 0x14, 0x00, 0x00, 0x00,
  0x00, 0x00, 0x0e, 0x00, 0x18, 0x00, 0x14, 0x00, 0x10, 0x00, 0x0c, 0x00,
  0x08, 0x00, 0x04, 0x00, 0x0e, 0x00, 0x00, 0x00, 0x14, 0x00, 0x00, 0x00,
  0x1c, 0x00, 0x00, 0x00, 0x24, 0x01, 0x00, 0x00, 0x28, 0x01, 0x00, 0x00,
  0x2c, 0x01, 0x00, 0x00, 0x04, 0x00, 0x00, 0x00, 0x6d, 0x61, 0x69, 0x6e,
  0x00, 0x00, 0x00, 0x00, 0x04, 0x00, 0x00, 0x00, 0xcc, 0x00, 0x00, 0x00,
  0x84, 0x00, 0x00, 0x00, 0x50, 0x00, 0x00, 0x00, 0x14, 0x00, 0x00, 0x00,
  0x00, 0x00, 0x0e, 0x00, 0x1a, 0x00, 0x14, 0x00, 0x10, 0x00, 0x0c, 0x00,
  0x0b, 0x00, 0x04, 0x00, 0x0e, 0x00, 0x00, 0x00, 0x1c, 0x00, 0x00, 0x00,
  0x00, 0x00, 0x00, 0x09, 0x1c, 0x00, 0x00, 0x00, 0x20, 0x00, 0x00, 0x00,
  0x01, 0x00, 0x00, 0x00, 0x00, 0x00, 0x06, 0x00, 0x08, 0x00, 0x04, 0x00,
  0x06, 0x00, 0x00, 0x00, 0x00, 0x00, 0x80, 0x3f, 0x01, 0x00, 0x00, 0x00,
  0x0a, 0x00, 0x00, 0x00, 0x01, 0x00, 0x00, 0x00, 0x09, 0x00, 0x00, 0x00,
  0x9a, 0xff, 0xff, 0xff, 0x10, 0x00, 0x00, 0x00, 0x00, 0x00, 0x00, 0x08,
  0x0c, 0x00, 0x00, 0x00, 0x10, 0x00, 0x00, 0x00, 0x08, 0xfb, 0xff, 0xff,
  0x01, 0x00, 0x00, 0x00, 0x09, 0x00, 0x00, 0x00, 0x03, 0x00, 0x00, 0x00,
  0x08, 0x00, 0x00, 0x00, 0x06, 0x00, 0x00, 0x00, 0x01, 0x00, 0x00, 0x00,
  0xca, 0xff, 0xff, 0xff, 0x10, 0x00, 0x00, 0x00, 0x00, 0x00, 0x00, 0x08,
  0x10, 0x00, 0x00, 0x00, 0x14, 0x00, 0x00, 0x00, 0xba, 0xff, 0xff, 0xff,
  0x00, 0x00, 0x00, 0x01, 0x01, 0x00, 0x00, 0x00, 0x08, 0x00, 0x00, 0x00,
  0x03, 0x00, 0x00, 0x00, 0x07, 0x00, 0x00, 0x00, 0x05, 0x00, 0x00, 0x00,
  0x02, 0x00, 0x00, 0x00, 0x00, 0x00, 0x0e, 0x00, 0x16, 0x00, 0x00, 0x00,
  0x10, 0x00, 0x0c, 0x00, 0x0b, 0x00, 0x04, 0x00, 0x0e, 0x00, 0x00, 0x00,
  0x18, 0x00, 0x00, 0x00, 0x00, 0x00, 0x00, 0x08, 0x18, 0x00, 0x00, 0x00,
  0x1c, 0x00, 0x00, 0x00, 0x00, 0x00, 0x06, 0x00, 0x08, 0x00, 0x07, 0x00,
  0x06, 0x00, 0x00, 0x00, 0x00, 0x00, 0x00, 0x01, 0x01, 0x00, 0x00, 0x00,
  0x07, 0x00, 0x00, 0x00, 0x03, 0x00, 0x00, 0x00, 0x00, 0x00, 0x00, 0x00,
  0x04, 0x00, 0x00, 0x00, 0x03, 0x00, 0x00, 0x00, 0x01, 0x00, 0x00, 0x00,
  0x0a, 0x00, 0x00, 0x00, 0x01, 0x00, 0x00, 0x00, 0x00, 0x00, 0x00, 0x00,
  0x0b, 0x00, 0x00, 0x00, 0x20, 0x04, 0x00, 0x00, 0xb0, 0x03, 0x00, 0x00,
  0x40, 0x03, 0x00, 0x00, 0xe8, 0x02, 0x00, 0x00, 0x9c, 0x02, 0x00, 0x00,
  0x50, 0x02, 0x00, 0x00, 0x04, 0x02, 0x00, 0x00, 0x70, 0x01, 0x00, 0x00,
  0xdc, 0x00, 0x00, 0x00, 0x60, 0x00, 0x00, 0x00, 0x04, 0x00, 0x00, 0x00,
  0x22, 0xfc, 0xff, 0xff, 0x00, 0x00, 0x00, 0x01, 0x14, 0x00, 0x00, 0x00,
  0x1c, 0x00, 0x00, 0x00, 0x1c, 0x00, 0x00, 0x00, 0x0b, 0x00, 0x00, 0x00,
  0x34, 0x00, 0x00, 0x00, 0x02, 0x00, 0x00, 0x00, 0xff, 0xff, 0xff, 0xff,
  0x05, 0x00, 0x00, 0x00, 0x0c, 0xfc, 0xff, 0xff, 0x19, 0x00, 0x00, 0x00,
  0x53, 0x74, 0x61, 0x74, 0x65, 0x66, 0x75, 0x6c, 0x50, 0x61, 0x72, 0x74,
  0x69, 0x74, 0x69, 0x6f, 0x6e, 0x65, 0x64, 0x43, 0x61, 0x6c, 0x6c, 0x3a,
  0x30, 0x00, 0x00, 0x00, 0x02, 0x00, 0x00, 0x00, 0x01, 0x00, 0x00, 0x00,
  0x05, 0x00, 0x00, 0x00, 0x7a, 0xfc, 0xff, 0xff, 0x00, 0x00, 0x00, 0x01,
  0x14, 0x00, 0x00, 0x00, 0x1c, 0x00, 0x00, 0x00, 0x1c, 0x00, 0x00, 0x00,
  0x0a, 0x00, 0x00, 0x00, 0x54, 0x00, 0x00, 0x00, 0x02, 0x00, 0x00, 0x00,
  0xff, 0xff, 0xff, 0xff, 0x05, 0x00, 0x00, 0x00, 0x64, 0xfc, 0xff, 0xff,
  0x38, 0x00, 0x00, 0x00, 0x73, 0x65, 0x71, 0x75, 0x65, 0x6e, 0x74, 0x69,
  0x61, 0x6c, 0x5f, 0x32, 0x2f, 0x64, 0x65, 0x6e, 0x73, 0x65, 0x5f, 0x38,
  0x2f, 0x4d, 0x61, 0x74, 0x4d, 0x75, 0x6c, 0x3b, 0x73, 0x65, 0x71, 0x75,
  0x65, 0x6e, 0x74, 0x69, 0x61, 0x6c, 0x5f, 0x32, 0x2f, 0x64, 0x65, 0x6e,
  0x73, 0x65, 0x5f, 0x38, 0x2f, 0x42, 0x69, 0x61, 0x73, 0x41, 0x64, 0x64,
  0x00, 0x00, 0x00, 0x00, 0x02, 0x00, 0x00, 0x00, 0x01, 0x00, 0x00, 0x00,
  0x05, 0x00, 0x00, 0x00, 0xf2, 0xfc, 0xff, 0xff, 0x00, 0x00, 0x00, 0x01,
  0x14, 0x00, 0x00, 0x00, 0x1c, 0x00, 0x00, 0x00, 0x1c, 0x00, 0x00, 0x00,
  0x09, 0x00, 0x00, 0x00, 0x6c, 0x00, 0x00, 0x00, 0x02, 0x00, 0x00, 0x00,
  0xff, 0xff, 0xff, 0xff, 0x40, 0x00, 0x00, 0x00, 0xdc, 0xfc, 0xff, 0xff,
  0x52, 0x00, 0x00, 0x00, 0x73, 0x65, 0x71, 0x75, 0x65, 0x6e, 0x74, 0x69,
  0x61, 0x6c, 0x5f, 0x32, 0x2f, 0x64, 0x65, 0x6e, 0x73, 0x65, 0x5f, 0x37,
  0x2f, 0x4d, 0x61, 0x74, 0x4d, 0x75, 0x6c, 0x3b, 0x73, 0x65, 0x71, 0x75,
  0x65, 0x6e, 0x74, 0x69, 0x61, 0x6c, 0x5f, 0x32, 0x2f, 0x64, 0x65, 0x6e,
  0x73, 0x65, 0x5f, 0x37, 0x2f, 0x52, 0x65, 0x6c, 0x75, 0x3b, 0x73, 0x65,
  0x71, 0x75, 0x65, 0x6e, 0x74, 0x69, 0x61, 0x6c, 0x5f, 0x32, 0x2f, 0x64,
  0x65, 0x6e, 0x73, 0x65, 0x5f, 0x37, 0x2f, 0x42, 0x69, 0x61, 0x73, 0x41,
  0x64, 0x64, 0x00, 0x00, 0x02, 0x00, 0x00, 0x00, 0x01, 0x00, 0x00, 0x00,
  0x40, 0x00, 0x00, 0x00, 0x82, 0xfd, 0xff, 0xff, 0x00, 0x00, 0x00, 0x01,
  0x14, 0x00, 0x00, 0x00, 0x1c, 0x00, 0x00, 0x00, 0x1c, 0x00, 0x00, 0x00,
  0x08, 0x00, 0x00, 0x00, 0x6c, 0x00, 0x00, 0x00, 0x02, 0x00, 0x00, 0x00,
  0xff, 0xff, 0xff, 0xff, 0x20, 0x00, 0x00, 0x00, 0x6c, 0xfd, 0xff, 0xff,
  0x52, 0x00, 0x00, 0x00, 0x73, 0x65, 0x71, 0x75, 0x65, 0x6e, 0x74, 0x69,
  0x61, 0x6c, 0x5f, 0x32, 0x2f, 0x64, 0x65, 0x6e, 0x73, 0x65, 0x5f, 0x36,
  0x2f, 0x4d, 0x61, 0x74, 0x4d, 0x75, 0x6c, 0x3b, 0x73, 0x65, 0x71, 0x75,
  0x65, 0x6e, 0x74, 0x69, 0x61, 0x6c, 0x5f, 0x32, 0x2f, 0x64, 0x65, 0x6e,
  0x73, 0x65, 0x5f, 0x36, 0x2f, 0x52, 0x65, 0x6c, 0x75, 0x3b, 0x73, 0x65,
  0x71, 0x75, 0x65, 0x6e, 0x74, 0x69, 0x61, 0x6c, 0x5f, 0x32, 0x2f, 0x64,
  0x65, 0x6e, 0x73, 0x65, 0x5f, 0x36, 0x2f, 0x42, 0x69, 0x61, 0x73, 0x41,
  0x64, 0x64, 0x00, 0x00, 0x02, 0x00, 0x00, 0x00, 0x01, 0x00, 0x00, 0x00,
  0x20, 0x00, 0x00, 0x00, 0x7e, 0xfe, 0xff, 0xff, 0x00, 0x00, 0x00, 0x01,
  0x10, 0x00, 0x00, 0x00, 0x10, 0x00, 0x00, 0x00, 0x07, 0x00, 0x00, 0x00,
  0x28, 0x00, 0x00, 0x00, 0xec, 0xfd, 0xff, 0xff, 0x1b, 0x00, 0x00, 0x00,
  0x73, 0x65, 0x71, 0x75, 0x65, 0x6e, 0x74, 0x69, 0x61, 0x6c, 0x5f, 0x32,
  0x2f, 0x64, 0x65, 0x6e, 0x73, 0x65, 0x5f, 0x38, 0x2f, 0x4d, 0x61, 0x74,
  0x4d, 0x75, 0x6c, 0x00, 0x02, 0x00, 0x00, 0x00, 0x05, 0x00, 0x00, 0x00,
  0x40, 0x00, 0x00, 0x00, 0xc6, 0xfe, 0xff, 0xff, 0x00, 0x00, 0x00, 0x01,
  0x10, 0x00, 0x00, 0x00, 0x10, 0x00, 0x00, 0x00, 0x06, 0x00, 0x00, 0x00,
  0x28, 0x00, 0x00, 0x00, 0x34, 0xfe, 0xff, 0xff, 0x1b, 0x00, 0x00, 0x00,
  0x73, 0x65, 0x71, 0x75, 0x65, 0x6e, 0x74, 0x69, 0x61, 0x6c, 0x5f, 0x32,
  0x2f, 0x64, 0x65, 0x6e, 0x73, 0x65, 0x5f, 0x37, 0x2f, 0x4d, 0x61, 0x74,
  0x4d, 0x75, 0x6c, 0x00, 0x02, 0x00, 0x00, 0x00, 0x40, 0x00, 0x00, 0x00,
  0x20, 0x00, 0x00, 0x00, 0x0e, 0xff, 0xff, 0xff, 0x00, 0x00, 0x00, 0x01,
  0x10, 0x00, 0x00, 0x00, 0x10, 0x00, 0x00, 0x00, 0x05, 0x00, 0x00, 0x00,
  0x28, 0x00, 0x00, 0x00, 0x7c, 0xfe, 0xff, 0xff, 0x1b, 0x00, 0x00, 0x00,
  0x73, 0x65, 0x71, 0x75, 0x65, 0x6e, 0x74, 0x69, 0x61, 0x6c, 0x5f, 0x32,
  0x2f, 0x64, 0x65, 0x6e, 0x73, 0x65, 0x5f, 0x36, 0x2f, 0x4d, 0x61, 0x74,
  0x4d, 0x75, 0x6c, 0x00, 0x02, 0x00, 0x00, 0x00, 0x20, 0x00, 0x00, 0x00,
  0x08, 0x00, 0x00, 0x00, 0x56, 0xff, 0xff, 0xff, 0x00, 0x00, 0x00, 0x01,
  0x10, 0x00, 0x00, 0x00, 0x10, 0x00, 0x00, 0x00, 0x04, 0x00, 0x00, 0x00,
  0x38, 0x00, 0x00, 0x00, 0xc4, 0xfe, 0xff, 0xff, 0x2b, 0x00, 0x00, 0x00,
  0x73, 0x65, 0x71, 0x75, 0x65, 0x6e, 0x74, 0x69, 0x61, 0x6c, 0x5f, 0x32,
  0x2f, 0x64, 0x65, 0x6e, 0x73, 0x65, 0x5f, 0x36, 0x2f, 0x42, 0x69, 0x61,
  0x73, 0x41, 0x64, 0x64, 0x2f, 0x52, 0x65, 0x61, 0x64, 0x56, 0x61, 0x72,
  0x69, 0x61, 0x62, 0x6c, 0x65, 0x4f, 0x70, 0x00, 0x01, 0x00, 0x00, 0x00,
  0x20, 0x00, 0x00, 0x00, 0xaa, 0xff, 0xff, 0xff, 0x00, 0x00, 0x00, 0x01,
  0x10, 0x00, 0x00, 0x00, 0x10, 0x00, 0x00, 0x00, 0x03, 0x00, 0x00, 0x00,
  0x38, 0x00, 0x00, 0x00, 0x18, 0xff, 0xff, 0xff, 0x2b, 0x00, 0x00, 0x00,
  0x73, 0x65, 0x71, 0x75, 0x65, 0x6e, 0x74, 0x69, 0x61, 0x6c, 0x5f, 0x32,
  0x2f, 0x64, 0x65, 0x6e, 0x73, 0x65, 0x5f, 0x37, 0x2f, 0x42, 0x69, 0x61,
  0x73, 0x41, 0x64, 0x64, 0x2f, 0x52, 0x65, 0x61, 0x64, 0x56, 0x61, 0x72,
  0x69, 0x61, 0x62, 0x6c, 0x65, 0x4f, 0x70, 0x00, 0x01, 0x00, 0x00, 0x00,
  0x40, 0x00, 0x00, 0x00, 0x00, 0x00, 0x16, 0x00, 0x18, 0x00, 0x14, 0x00,
  0x00, 0x00, 0x10, 0x00, 0x0c, 0x00, 0x08, 0x00, 0x00, 0x00, 0x00, 0x00,
  0x00, 0x00, 0x07, 0x00, 0x16, 0x00, 0x00, 0x00, 0x00, 0x00, 0x00, 0x01,
  0x10, 0x00, 0x00, 0x00, 0x10, 0x00, 0x00, 0x00, 0x02, 0x00, 0x00, 0x00,
  0x38, 0x00, 0x00, 0x00, 0x84, 0xff, 0xff, 0xff, 0x2b, 0x00, 0x00, 0x00,
  0x73, 0x65, 0x71, 0x75, 0x65, 0x6e, 0x74, 0x69, 0x61, 0x6c, 0x5f, 0x32,
  0x2f, 0x64, 0x65, 0x6e, 0x73, 0x65, 0x5f, 0x38, 0x2f, 0x42, 0x69, 0x61,
  0x73, 0x41, 0x64, 0x64, 0x2f, 0x52, 0x65, 0x61, 0x64, 0x56, 0x61, 0x72,
  0x69, 0x61, 0x62, 0x6c, 0x65, 0x4f, 0x70, 0x00, 0x01, 0x00, 0x00, 0x00,
  0x05, 0x00, 0x00, 0x00, 0x00, 0x00, 0x16, 0x00, 0x1c, 0x00, 0x18, 0x00,
  0x00, 0x00, 0x14, 0x00, 0x10, 0x00, 0x0c, 0x00, 0x00, 0x00, 0x00, 0x00,
  0x08, 0x00, 0x07, 0x00, 0x16, 0x00, 0x00, 0x00, 0x00, 0x00, 0x00, 0x01,
  0x14, 0x00, 0x00, 0x00, 0x20, 0x00, 0x00, 0x00, 0x20, 0x00, 0x00, 0x00,
  0x01, 0x00, 0x00, 0x00, 0x3c, 0x00, 0x00, 0x00, 0x02, 0x00, 0x00, 0x00,
  0xff, 0xff, 0xff, 0xff, 0x08, 0x00, 0x00, 0x00, 0x04, 0x00, 0x04, 0x00,
  0x04, 0x00, 0x00, 0x00, 0x1f, 0x00, 0x00, 0x00, 0x73, 0x65, 0x72, 0x76,
  0x69, 0x6e, 0x67, 0x5f, 0x64, 0x65, 0x66, 0x61, 0x75, 0x6c, 0x74, 0x5f,
  0x64, 0x65, 0x6e, 0x73, 0x65, 0x5f, 0x36, 0x5f, 0x69, 0x6e, 0x70, 0x75,
  0x74, 0x3a, 0x30, 0x00, 0x02, 0x00, 0x00, 0x00, 0x01, 0x00, 0x00, 0x00,
  0x08, 0x00, 0x00, 0x00, 0x02, 0x00, 0x00, 0x00, 0x20, 0x00, 0x00, 0x00,
  0x04, 0x00, 0x00, 0x00, 0xf4, 0xff, 0xff, 0xff, 0x19, 0x00, 0x00, 0x00,
  0x00, 0x00, 0x00, 0x19, 0x0c, 0x00, 0x0c, 0x00, 0x0b, 0x00, 0x00, 0x00,
  0x00, 0x00, 0x04, 0x00, 0x0c, 0x00, 0x00, 0x00, 0x09, 0x00, 0x00, 0x00,
  0x00, 0x00, 0x00, 0x09
};
